{"version":"1.0","truncation":null,"padding":null,"added_tokens":[{"id":0,"special":true,"content":"<cls>","single_word":false,"lstrip":false,"rstrip":false,"normalized":false},{"id":1,"special":true,"content":"<sep>","single_word":false,"lstrip":false,"rstrip":false,"normalized":false},{"id":2,"special":true,"content":"<unk>","single_word":false,"lstrip":false,"rstrip":false,"normalized":false},{"id":3,"special":true,"content":"<pad>","single_word":false,"lstrip":false,"rstrip":false,"normalized":false},{"id":4,"special":true,"content":"<mask>","single_word":false,"lstrip":false,"rstrip":false,"normalized":false},{"id":5,"special":true,"content":"<s>","single_word":false,"lstrip":false,"rstrip":false,"normalized":false},{"id":6,"special":true,"content":"</s>","single_word":false,"lstrip":false,"rstrip":false,"normalized":false}],"normalizer":{"type":"Sequence","normalizers":[{"type":"Replace","pattern":{"String":"``"},"content":"\""},{"type":"Replace","pattern":{"String":"''"},"content":"\""},{"type":"NFKD"},{"type":"StripAccents"},{"type":"Replace","pattern":{"Regex":" {2,}"},"content":" "}]},"pre_tokenizer":{"type":"ByteLevel","add_prefix_space":false,"trim_offsets":true},"post_processor":null,"decoder":null,"model":{"type":"BPE","dropout":null,"unk_token":"<unk>","continuing_subword_prefix":null,"end_of_word_suffix":null,"fuse_unk":false,"vocab":{"<cls>":0,"<sep>":1,"<unk>":2,"<pad>":3,"<mask>":4,"<s>":5,"</s>":6,"!":7,"\"":8,"#":9,"$":10,"%":11,"&":12,"'":13,"(":14,")":15,"*":16,"+":17,",":18,"-":19,".":20,"/":21,"0":22,"1":23,"2":24,"3":25,"4":26,"5":27,"6":28,"7":29,"8":30,"9":31,":":32,";":33,"<":34,"=":35,">":36,"?":37,"@":38,"A":39,"B":40,"C":41,"D":42,"E":43,"F":44,"G":45,"H":46,"I":47,"J":48,"K":49,"L":50,"M":51,"N":52,"O":53,"P":54,"Q":55,"R":56,"S":57,"T":58,"U":59,"V":60,"W":61,"X":62,"Y":63,"Z":64,"[":65,"\\":66,"]":67,"^":68,"_":69,"`":70,"a":71,"b":72,"c":73,"d":74,"e":75,"f":76,"g":77,"h":78,"i":79,"j":80,"k":81,"l":82,"m":83,"n":84,"o":85,"p":86,"q":87,"r":88,"s":89,"t":90,"u":91,"v":92,"w":93,"x":94,"y":95,"z":96,"{":97,"|":98,"}":99,"~":100,"¡":101,"¢":102,"£":103,"¤":104,"¥":105,"¦":106,"§":107,"¨":108,"©":109,"ª":110,"«":111,"¬":112,"®":113,"¯":114,"°":115,"±":116,"²":117,"³":118,"´":119,"µ":120,"¶":121,"·":122,"¸":123,"¹":124,"º":125,"»":126,"¼":127,"½":128,"¾":129,"¿":130,"Â":131,"Ã":132,"Ä":133,"Å":134,"Æ":135,"Ç":136,"È":137,"É":138,"Ê":139,"Ë":140,"Î":141,"Ï":142,"Ð":143,"Ñ":144,"Ò":145,"Ó":146,"×":147,"Ø":148,"Ù":149,"Ú":150,"Û":151,"Þ":152,"ß":153,"à":154,"á":155,"â":156,"ã":157,"ä":158,"å":159,"æ":160,"ç":161,"è":162,"é":163,"î":164,"ï":165,"ð":166,"ò":167,"ĉ":168,"č":169,"Ġ":170,"ġ":171,"Ģ":172,"ģ":173,"Ĥ":174,"ĥ":175,"Ħ":176,"ħ":177,"Ĩ":178,"ĩ":179,"Ī":180,"ī":181,"Ĭ":182,"ĭ":183,"Į":184,"į":185,"İ":186,"ı":187,"Ĳ":188,"ĳ":189,"Ĵ":190,"ĵ":191,"Ķ":192,"ķ":193,"ĸ":194,"Ĺ":195,"ĺ":196,"Ļ":197,"ļ":198,"Ľ":199,"ľ":200,"Ŀ":201,"ŀ":202,"Ł":203,"ł":204,"Ń":205,"en":206,"er":207,"in":208,"Ġa":209,"Ġt":210,"Ġd":211,"ch":212,"on":213,"es":214,"un":215,"Ġth":216,"it":217,"is":218,"Ġs":219,"Ġw":220,"at":221,"an":222,"or":223,"ie":224,"Ġthe":225,"re":226,"ur":227,"Ġb":228,"al":229,"ar":230,"Ġo":231,"Ġin":232,"Ġf":233,"ich":234,"Ġm":235,"te":236,"as":237,"ion":238,"Ġe":239,"Ġan":240,"le":241,"Ġp":242,"Ġc":243,"us":244,"Ġun":245,"Ġh":246,"ge":247,"ent":248,"ro":249,"Ġof":250,"Ġn":251,"ĠS":252,"Ġv":253,"ing":254,"ung":255,"Ġand":256,"Ġto":257,"ll":258,"ed":259,"Ġdie":260,"om":261,"Ġder":262,"Ġund":263,"ig":264,"ĠA":265,"ic":266,"st":267,"Ġbe":268,"Ġis":269,"ĠE":270,"ra":271,"Ġein":272,"ut":273,"Ġz":274,"im":275,"ir":276,"Ġg":277,"el":278,"ĠM":279,"ĠP":280,"ĠB":281,"em":282,"ter":283,"il":284,"et":285,"ol":286,"ation":287,"eit":288,"der":289,"am":290,"ten":291,"Ġl":292,"den":293,"Ġre":294,"ĠI":295,"um":296,"hr":297,"ies":298,"op":299,"ĠF":300,"ĠG":301,"ct":302,"uf":303,"ul":304,"sch":305,"ĠK":306,"Ġk":307,"ber":308,"iv":309,"lich":310,"ĠR":311,"de":312,"ĠC":313,"Ġfor":314,"ot":315,"ab":316,"ĠT":317,"isch":318,"ĠV":319,"ĠH":320,"ier":321,"icht":322,"gen":323,"ĠD":324,"os":325,"and":326,"Ġdas":327,"Ġon":328,"Ġzu":329,"ĠW":330,"ere":331,"Ġden":332,"ach":333,"ly":334,"est":335,"ess":336,"Ġthat":337,"he":338,"id":339,"ĠL":340,"ce":341,"omm":342,"ein":343,"ers":344,"Ġal":345,"uch":346,"ort":347,"ow":348,"Ġpro":349,"ĠU":350,"Ġwh":351,"Ġvon":352,"Ġge":353,"Ġr":354,"ÃŁ":355,"Ġim":356,"Ġst":357,"ith":358,"Ġy":359,"Ġwir":360,"kt":361,"if":362,"Ġfur":363,"Ġcon":364,"Ġist":365,"Ġver":366,"Ġer":367,"ver":368,"Ġwith":369,"Ġauf":370,"Ġwe":371,"la":372,"urop":373,"ill":374,"ad":375,"Ġdes":376,"Ġit":377,"ve":378,"Ġmit":379,"Ġare":380,"af":381,"ind":382,"Ġas":383,"ck":384,"Ġso":385,"Ġde":386,"âĢ":387,"ts":388,"Ġne":389,"iss":390,"Ġ1":391,"Ġyo":392,"ĠN":393,"ay":394,"Ġdies":395,"end":396,"ah":397,"ate":398,"ĠSt":399,"pp":400,"ĠEurop":401,"ment":402,"ik":403,"ĠZ":404,"Ġ(":405,"Ġse":406,"ug":407,"qu":408,"Ġu":409,"ist":410,"The":411,"th":412,"ungen":413,"00":414,"Ġ2":415,"ischen":416,"men":417,"ib":418,"uss":419,"ust":420,"Ġals":421,"for":422,"Ġeine":423,"nen":424,"ak":425,"und":426,"ant":427,"Ġex":428,"ĠVer":429,"Ġdem":430,"art":431,"Ġha":432,"Ġthis":433,"ity":434,"ĠIn":435,"ien":436,"ive":437,"ial":438,"Ġor":439,"ann":440,"Ġj":441,"ahr":442,"och":443,"Ġnicht":444,"Ġwer":445,"Ġnot":446,"Ġco":447,"og":448,"ĠAn":449,"pe":450,"ub":451,"ne":452,"ĠUn":453,"Ġsich":454,"Ġall":455,"Ġle":456,"tel":457,"Ġwerden":458,"ass":459,"Ġ-":460,"ag":461,"ĠJ":462,"we":463,"all":464,"Ġby":465,"rom":466,"Ġhave":467,"ens":468,"ĠRe":469,"Ġdass":470,"ĠSie":471,"Ġat":472,"igh":473,"igen":474,"Ġes":475,"ain":476,"ff":477,"ru":478,"ran":479,"uld":480,"Ġyou":481,"ste":482,"Ġaus":483,"ern":484,"od":485,"Ġwill":486,"ĠO":487,"Ġab":488,"omp":489,"hal":490,"Ġuns":491,"iel":492,"aus":493,"Ġuber":494,"ions":495,"ungs":496,"ure":497,"Ġi":498,"ang":499,"ze":500,"Ġme":501,"Ġsh":502,"age":503,"Ġwhich":504,"ommiss":505,"ted":506,"Ġwas":507,"Ġauch":508,"lie":509,"ben":510,"hen":511,"Die":512,"Ġfrom":513,"port":514,"..":515,"ĠPr":516,"du":517,"ĠEurope":518,"ard":519,"Ġum":520,"ĠSch":521,"ould":522,"Ġsind":523,"Ġus":524,"tern":525,"Ġkon":526,"ast":527,"Ġch":528,"Ġsch":529,"ĠâĢ":530,"ident":531,"ommission":532,"In":533,"ĠPro":534,"ud":535,"Ġent":536,"pt":537,"fer":538,"Ġvor":539,"Ġwird":540,"esch":541,"ark":542,"Ġhab":543,"schaf":544,"Ġpr":545,"Ġhas":546,"iz":547,"pr":548,"mer":549,"ine":550,"Ġwor":551,"Th":552,"ok":553,"Ġres":554,"ue":555,"Ġen":556,"oc":557,"ĠEn":558,"Ġhat":559,"are":560,"ous":561,"ische":562,"ick":563,"Ġwie":564,"enn":565,"Ġda":566,"ĠBe":567,"ip":568,"urch":569,"our":570,"llen":571,"Ġhe":572,"ost":573,"ise":574,"Ġcan":575,"form":576,"Ġman":577,"etz":578,"Ġam":579,"ige":580,"ire":581,"err":582,"able":583,"me":584,"utz":585,"ia":586,"Ġsein":587,"Ġich":588,"Ġcomp":589,"ult":590,"ert":591,"au":592,"tr":593,"ĠAr":594,"ore":595,"Ġoder":596,"ft":597,"ome":598,"otel":599,"ament":600,"Ġour":601,"aten":602,"ations":603,"keit":604,"arl":605,"cc":606,"erv":607,"Ġzur":608,"be":609,"gr":610,"beit":611,"Ġalso":612,"ĠEuropean":613,"Ġhaben":614,"Ġsie":615,"ĠEr":616,"ational":617,"ction":618,"ap":619,"ical":620,"heit":621,"Ġwur":622,"Ġad":623,"ese":624,"lo":625,"ition":626,"lichen":627,"ish":628,"ice":629,"Ġgro":630,"ated":631,"out":632,"oh":633,"Ġ\"":634,"Ġnach":635,"Ġbei":636,"Ġdo":637,"tra":638,"Ġeiner":639,"olit":640,"rit":641,"ĠEuropa":642,"dern":643,"se":644,"ord":645,"ther":646,"ieren":647,"ect":648,"Ġ200":649,"Ġunter":650,"per":651,"Ġsu":652,"ac":653,"Ġqu":654,"schaft":655,"ign":656,"Ġeinen":657,"ĠGe":658,"tet":659,"ms":660,"'s":661,"Ġpart":662,"ĠParl":663,"iert":664,"uhr":665,"ates":666,"Ġyour":667,"elt":668,"ight":669,"Ġits":670,"ĠUnion":671,"sp":672,"ĠMit":673,"vel":674,"ht":675,"oun":676,"Ġte":677,"oll":678,"ahl":679,"ake":680,"ear":681,"Ġreg":682,"ite":683,"Ġmuss":684,"ĠAus":685,"her":686,"anz":687,"Ġdurch":688,"ank":689,"yste":690,"ian":691,"Ġag":692,"Ġsp":693,"ose":694,"Ġbut":695,"ary":696,"Ġro":697,"ember":698,"Ġgo":699,"ide":700,"cial":701,"Ġkonnen":702,"Ġthere":703,"liche":704,"Ġtra":705,"ĠBer":706,"Ġwar":707,"con":708,"ong":709,"We":710,"Ġapp":711,"eren":712,"ĠEin":713,"hre":714,"Ġste":715,"Ġdar":716,"ĠEU":717,"ual":718,"ĠFra":719,"Das":720,"ĠCommission":721,"rie":722,"ĠVor":723,"ime":724,"cl":725,"Ġspe":726,"fen":727,"Ġwould":728,"Ġ3":729,"Ġmore":730,"ance":731,"ile":732,"tw":733,"ail":734,"ov":735,"Ġzum":736,"ĠAb":737,"Ġtheir":738,"ĠâĢĵ":739,"Ġ19":740,"Ġeinem":741,"ommen":742,"Ġbeen":743,"Ġgen":744,"cht":745,"Ġbes":746,"Ġcont":747,"reat":748,"ase":749,"ute":750,"one":751,"chen":752,"Ġar":753,"ack":754,"uÃŁ":755,"imm":756,"âĢĻ":757,"ame":758,"act":759,"Ġwurde":760,"chn":761,"oss":762,"ram":763,"ble":764,"Ich":765,"ild":766,"atz":767,"Ġkann":768,"Ġfin":769,"zu":770,"Ġdiese":771,"Ġone":772,"auf":773,"Ġacc":774,"gan":775,"Ġnur":776,"Ġdis":777,"ugh":778,"ĠWe":779,"ents":780,"Ġcoun":781,"Ġper":782,"ĠTe":783,"gt":784,"Ġcomm":785,"pro":786,"lan":787,"ges":788,"land":789,"up":790,"Ġshould":791,"Ġalle":792,"ĠKon":793,"Ġbet":794,"to":795,"Ġwork":796,"wer":797,"amp":798,"ob":799,"lic":800,"ĠDe":801,"...":802,"ution":803,"uck":804,"ike":805,"ĠSp":806,"itat":807,"Ġnew":808,"geb":809,"ger":810,"Ġ.":811,"eine":812,"Ġoff":813,"ĠLe":814,"Ġ,":815,"ĠUnter":816,"Wir":817,"This":818,"ĠCh":819,"Ġup":820,"ely":821,"Ġcl":822,"ree":823,"hmen":824,"ierung":825,"ner":826,"ater":827,"It":828,"asident":829,"ĠJahr":830,"av":831,"Ġout":832,"Ġdieser":833,"ĠHotel":834,"sten":835,"igkeit":836,"Ġob":837,"olle":838,"ren":839,"ld":840,"Ġjed":841,"ĠPres":842,"reich":843,"Ġpre":844,"tell":845,"Ġcountr":846,"alt":847,"ings":848,"aÃŁ":849,"erson":850,"Ġind":851,"Ġvery":852,"Ġmust":853,"mp":854,"Ġinter":855,"Ġzw":856,"Ġwho":857,"ktion":858,"Ġother":859,"ĠdaÃŁ":860,"Ġnoch":861,"Ġprodu":862,"che":863,"ities":864,"Ġihr":865,"ink":866,"Ġev":867,"ĠKommission":868,"ange":869,"Ġpe":870,"ors":871,"ĠMr":872,"Ġthey":873,"Ġpla":874,"ade":875,"formation":876,"mit":877,"Ġneed":878,"Ġweit":879,"ces":880,"gram":881,"ke":882,"ĠHerr":883,"atur":884,"ments":885,"Ġno":886,"Der":887,"Ġber":888,"Ġmehr":889,"Ġsoll":890,"rat":891,"Ġintern":892,"Ġonly":893,"schen":894,"ĠgroÃŁ":895,"fahr":896,"Ġyear":897,"Ġfe":898,"Ġbec":899,"Ġcons":900,"Ġsupp":901,"Ġlike":902,"ĠAuf":903,"Ġaber":904,"rans":905,"olog":906,"oin":907,"ystem":908,"ĠPresident":909,"glie":910,"Ġtime":911,"Ġabout":912,"Ġwenn":913,"Ġpolit":914,"bar":915,"teil":916,"oglich":917,"Es":918,"fe":919,"ĠPrasident":920,"halt":921,"ible":922,"ĠSe":923,"Ġany":924,"assen":925,"stand":926,"ious":927,"Dies":928,"ced":929,"pos":930,"uen":931,"Ġ5":932,"leich":933,").":934,"Ġprov":935,"Ġges":936,"ĠGr":937,"Ġsehr":938,"xt":939,"lin":940,"velop":941,"Ġmoch":942,"nah":943,"ry":944,"Ġmussen":945,"ally":946,"ander":947,"unden":948,"ject":949,"Ġunser":950,"Ġ4":951,"Ġeff":952,"cess":953,"fuhr":954,"entr":955,"Ġsow":956,"erm":957,"ĠReg":958,"Ġra":959,"gel":960,"iament":961,"ĠFor":962,"ular":963,"ammen":964,"arbeit":965,"io":966,"onder":967,"Ġthese":968,"ons":969,"ient":970,"ĠParlament":971,"Ġrec":972,"ĠArbeit":973,"Ġsol":974,"Ġserv":975,"Ġdire":976,"ied":977,"fore":978,"own":979,"Ġvie":980,"ph":981,"ring":982,"ull":983,"led":984,"Ġhin":985,"ibt":986,"ility":987,"Ġimport":988,"ĠMitglie":989,"usammen":990,"ause":991,"als":992,"Ġdiesem":993,"stit":994,"ider":995,"irst":996,"ĠMen":997,"ople":998,"wend":999,"off":1000,"sta":1001,"ĠMember":1002,"igt":1003,"cy":1004,"Ġgegen":1005,"Ġdevelop":1006,"Ġla":1007,"Ġif":1008,"ism":1009,"Ġsuch":1010,"halten":1011,"fol":1012,"hnen":1013,"ans":1014,"Ġreport":1015,"acht":1016,"ook":1017,"Ġihre":1018,"ale":1019,"Ġact":1020,"ĠEuropaischen":1021,"fl":1022,"wn":1023,"enden":1024,"Ġpol":1025,"hor":1026,"wor":1027,"ĠAl":1028,"iger":1029,"uropa":1030,"iven":1031,"etzt":1032,"Ġbis":1033,"tz":1034,"Ġsub":1035,"ateg":1036,"ific":1037,"dition":1038,"ont":1039,"sche":1040,"ĠTh":1041,"ĠMar":1042,"Ġins":1043,"Ġmy":1044,"Ġover":1045,"enz":1046,"Ġrel":1047,"nehmen":1048,"bs":1049,"ĠZeit":1050,"Ġinto":1051,"ks":1052,"itu":1053,"Ġpeople":1054,"ĠThe":1055,"lieÃŁ":1056,"Ġwere":1057,"Ġwell":1058,"erg":1059,"ative":1060,"ays":1061,"Ġ20":1062,"cre":1063,"iden":1064,"ices":1065,"lung":1066,"ats":1067,"irt":1068,"Ġgem":1069,"Ġinternational":1070,"Ġbest":1071,"Ġstr":1072,"ĠParliament":1073,"ement":1074,"),":1075,"Ġsome":1076,"Un":1077,"Ġwo":1078,"Ġviel":1079,"Ġmochte":1080,"ri":1081,"ou":1082,"Ġuse":1083,"wo":1084,"Ġinv":1085,"ene":1086,"cil":1087,"conom":1088,"isten":1089,"Ġcom":1090,"An":1091,"zeit":1092,"ss":1093,"Ġwhat":1094,"Ġdif":1095,"ĠStates":1096,"Ġsa":1097,"Ġhier":1098,"arket":1099,"arge":1100,"Ġhigh":1101,"ĠMitglied":1102,"icher":1103,"Ġher":1104,"amen":1105,"Ġeines":1106,"rei":1107,"Ġhotel":1108,"Ġtrans":1109,"Ġkn":1110,"very":1111,"Ġgew":1112,"ho":1113,"ĠCoun":1114,"ory":1115,"les":1116,"Ġbed":1117,"Ġcountries":1118,"Ġdec":1119,"Ġfirst":1120,"uber":1121,"Ġloc":1122,"Ġthan":1123,"Ġincl":1124,"Ġmost":1125,"ures":1126,"Ġvom":1127,"olitik":1128,"ention":1129,"Ġhel":1130,"Ġwicht":1131,"Ġwhen":1132,"Ġhis":1133,"iet":1134,"itte":1135,"esent":1136,"Ġlie":1137,"Ġpartic":1138,"kte":1139,"ace":1140,"pect":1141,"Ġvers":1142,"fr":1143,"Ġthem":1144,"Ġunder":1145,"ĠOr":1146,"ards":1147,"inn":1148,"ages":1149,"abe":1150,"Ġeuropa":1151,"itz":1152,"schla":1153,"ĠCouncil":1154,"Ġjust":1155,"att":1156,"Ġpolic":1157,"Ġdam":1158,"Ġsowie":1159,"ating":1160,"ett":1161,"Ġbeg":1162,"ken":1163,"Ġele":1164,"Ġwel":1165,"ĠMenschen":1166,"ĠEntw":1167,"Ġnow":1168,"Ġagain":1169,"hl":1170,"ruck":1171,"ond":1172,"ĠUm":1173,"Ġsupport":1174,"eschaf":1175,"sicht":1176,"ence":1177,"Ġbas":1178,"Ġdieses":1179,"ever":1180,"Ġimportant":1181,"ights":1182,"Ġmake":1183,"Ġgu":1184,"ohl":1185,"Ġmo":1186,"els":1187,"Ġaut":1188,"tre":1189,"ween":1190,"hand":1191,"arm":1192,"ĠBericht":1193,"ĠUber":1194,"Ġgibt":1195,"Ġimp":1196,"Ġeconom":1197,"ĠLand":1198,"ues":1199,"Ġmany":1200,"Ġhow":1201,"Ġroom":1202,"Ġperson":1203,"Ġbetween":1204,"stutz":1205,"kommen":1206,"kl":1207,"Ġass":1208,"fin":1209,"achen":1210,"ĠMe":1211,"ote":1212,"Ġpropos":1213,"je":1214,"oth":1215,"Ġrequ":1216,"halb":1217,"ters":1218,"essen":1219,"str":1220,"any":1221,"Ġtechn":1222,"mal":1223,"issen":1224,"ĠQ":1225,"ives":1226,"forder":1227,"Ġwurden":1228,"Ġposs":1229,"Ġbecause":1230,"staaten":1231,"rag":1232,"ware":1233,"Ġzwischen":1234,"ĠComm":1235,"Ġleg":1236,"ĠIhr":1237,"zie":1238,"fter":1239,"Ġtake":1240,"Ġfre":1241,"Ġbereit":1242,"ĠFl":1243,"legen":1244,"ax":1245,"pl":1246,"ublic":1247,"Ġworld":1248,"Ġmarket":1249,"Ġcre":1250,"Ġpos":1251,"bst":1252,"ĠEntwick":1253,"ful":1254,"ĠVerb":1255,"Ġ6":1256,"Ġfo":1257,"ugen":1258,"ĠBed":1259,"hn":1260,"oint":1261,"cted":1262,"blem":1263,"rough":1264,"Ġfind":1265,"weit":1266,"zial":1267,"ath":1268,"uer":1269,"Ġsel":1270,"ict":1271,"ĠBur":1272,"min":1273,"lear":1274,"rech":1275,"ption":1276,"Ġson":1277,"igung":1278,"Ġunsere":1279,"Ġnational":1280,"Ġop":1281,"ount":1282,"rauch":1283,"dem":1284,"ality":1285,"âĢľ":1286,"ĠGrund":1287,"Ġwhere":1288,"Ġkeine":1289,"ĠNe":1290,"Ġmin":1291,"Ġgood":1292,"ys":1293,"dit":1294,"Ġgreat":1295,"Al":1296,"Ġhand":1297,"urs":1298,"Ġbie":1299,"vern":1300,"nis":1301,"Ġav":1302,"Ġtwo":1303,"Ġinformation":1304,"ĠUS":1305,"Ġemp":1306,"ĠEnt":1307,"ĠGes":1308,"ĠIhnen":1309,"ĠIntern":1310,"net":1311,"Ġrem":1312,"uman":1313,"Sie":1314,"Ġevery":1315,"laub":1316,"aut":1317,"Ġverb":1318,"Ġeinz":1319,"Ġmade":1320,"unkt":1321,"Ġyears":1322,"Ġhad":1323,"fall":1324,"ĠMin":1325,"Ġconc":1326,"lish":1327,"fug":1328,"Ġanderen":1329,"amil":1330,"rol":1331,"Ġmein":1332,"ĠProdu":1333,"sel":1334,"rif":1335,"nung":1336,"Ġeven":1337,"Ġend":1338,"uring":1339,"ĠArt":1340,"Ġthrough":1341,"fort":1342,"Ġway":1343,"Be":1344,"Ġiss":1345,"Ġsystem":1346,"air":1347,"schie":1348,"geben":1349,"ision":1350,"Ġthose":1351,"Ġproduct":1352,"ischer":1353,"hm":1354,"ĠMitgliedstaaten":1355,"ina":1356,"Ġsee":1357,"ession":1358,"ereich":1359,"trag":1360,"Ġsc":1361,"ium":1362,"Ġstand":1363,"ister":1364,"Ġweiter":1365,"Ġange":1366,"Ġget":1367,"ower":1368,"ws":1369,"ĠâĢŀ":1370,"Ġ199":1371,"ĠIhre":1372,"immer":1373,"leg":1374,"ĠGro":1375,"weise":1376,"Ġimmer":1377,"ganis":1378,"day":1379,"ĠZusammen":1380,"Ġpolicy":1381,"Ġorder":1382,"ows":1383,"Ġmay":1384,"erein":1385,"ĠHaus":1386,"zug":1387,"Ġtak":1388,"adt":1389,"lick":1390,"Ġdirect":1391,"Ġdisc":1392,"ument":1393,"Ġdann":1394,"luss":1395,"Ġpl":1396,"Ġright":1397,"Ġac":1398,"unity":1399,"Ġ'":1400,"ituation":1401,"Ġfun":1402,"âĢĿ":1403,"Ġkonn":1404,"aur":1405,"If":1406,"Ġbeing":1407,"ital":1408,"ivers":1409,"Ġnum":1410,"Ġfact":1411,"res":1412,"Ġbeste":1413,"Ġ7":1414,"ited":1415,"ĠSo":1416,"tens":1417,"Im":1418,"isen":1419,"Ġrest":1420,"Ġke":1421,"ster":1422,"Ġexp":1423,"10":1424,"000":1425,"Ġdiffer":1426,"schlieÃŁ":1427,"Ġbelie":1428,"Ġlong":1429,"Ġparticular":1430,"Ġappro":1431,"Ġwieder":1432,"uÃŁer":1433,"nahmen":1434,"Ġdiesen":1435,"az":1436,"Ġganz":1437,"Ġdamit":1438,"Ġcent":1439,"eration":1440,"gest":1441,"Ġger":1442,"unft":1443,"Ġcar":1444,"Ġ10":1445,"hang":1446,"Ġ8":1447,"Ġzwe":1448,"Ġinclud":1449,"vor":1450,"part":1451,"lex":1452,"atter":1453,"ĠBereich":1454,"Ġown":1455,"bal":1456,"istr":1457,"itt":1458,"Ġ[":1459,"eins":1460,"Ġprocess":1461,"isse":1462,"icherheit":1463,"Ġlang":1464,"ough":1465,"ĠRech":1466,"get":1467,"Ġresp":1468,"ior":1469,"Ġdel":1470,"iness":1471,"Ġknow":1472,"hne":1473,"Ġmon":1474,"eln":1475,"old":1476,"innen":1477,"read":1478,"zeich":1479,"ĠHand":1480,"urn":1481,"ĠDie":1482,"ouse":1483,"ĠWelt":1484,"ende":1485,"com":1486,"ultur":1487,"Ġbus":1488,"gramm":1489,"elle":1490,"Ġarea":1491,"Ein":1492,"stitution":1493,"Ġquest":1494,"Ġcur":1495,"Ġmain":1496,"oy":1497,"Wenn":1498,"ĠâĢľ":1499,"ionen":1500,"schieden":1501,"Ġph":1502,"Ġkein":1503,"Ġunserer":1504,"satz":1505,"Ġagre":1506,"alk":1507,"There":1508,"ool":1509,"You":1510,"rechen":1511,"Ġbu":1512,"isp":1513,"Ġreal":1514,"raft":1515,"round":1516,"arte":1517,"Ġhelp":1518,"Ġschon":1519,"Ġhere":1520,"Ġhabe":1521,"hin":1522,"schafts":1523,"Ġsondern":1524,"Ġsm":1525,"aren":1526,"Ġcour":1527,"Ġdeb":1528,"stell":1529,"eth":1530,"ĠGeb":1531,"Ġafter":1532,"Ġseine":1533,"Ġtr":1534,"Ġform":1535,"Ġpra":1536,"Ġjedoch":1537,"ĠMaÃŁ":1538,"eld":1539,"Ġpolitical":1540,"ĠHe":1541,"ests":1542,"Ġpar":1543,"ince":1544,"Ġadd":1545,"tegr":1546,"Ġide":1547,"Ġpublic":1548,"aum":1549,"aj":1550,"Ġgut":1551,"Ġplace":1552,"ler":1553,"Ġincre":1554,"ĠEuropaische":1555,"Ġprote":1556,"Ġconcern":1557,"eite":1558,"Ġpossible":1559,"mittel":1560,"Ġ9":1561,"ved":1562,"Mr":1563,"Ġsame":1564,"erk":1565,"erung":1566,"gesch":1567,"ently":1568,"For":1569,"Ġnatur":1570,"Ġausge":1571,"Ġsim":1572,"ĠEx":1573,"ktiv":1574,"ix":1575,"mb":1576,"Ġser":1577,"Ġclear":1578,"ĠFin":1579,"Ġetw":1580,"bens":1581,"iron":1582,"oglichkeit":1583,"fach":1584,"eral":1585,"ress":1586,"ierte":1587,"ata":1588,"ines":1589,"Ġneue":1590,"Ġcould":1591,"ragen":1592,"ĠRat":1593,"Ġhuman":1594,"tal":1595,"Ġwant":1596,"ĠInter":1597,"Ġwahr":1598,"Ġheute":1599,"ĠAnder":1600,"ĠBes":1601,"uro":1602,"ĠGem":1603,"line":1604,"use":1605,"Ġnumber":1606,"licher":1607,"Ġcontin":1608,"ruct":1609,"Ġsay":1610,"lement":1611,"As":1612,"ĠVorschla":1613,"ĠBar":1614,"ohn":1615,"Ġeconomic":1616,"Ġoffer":1617,"Ġgleich":1618,"Ġdoes":1619,"Ġest":1620,"ron":1621,"ven":1622,"isk":1623,"Ġdevelopment":1624,"Ġthen":1625,"zahl":1626,"Ġopp":1627,"alen":1628,"ertain":1629,"osten":1630,"Ġwithin":1631,"Ġeffect":1632,"tellt":1633,"Ġwen":1634,"ĠSta":1635,"iti":1636,"iÃŁ":1637,"Ġrights":1638,"Diese":1639,"Ġgesch":1640,"Ġvoll":1641,"ustr":1642,"ep":1643,"ĠUnternehmen":1644,"ĠKolle":1645,"Ġbereits":1646,"ock":1647,"Ġ...":1648,"Ġbef":1649,"kehr":1650,"ics":1651,"ĠTeil":1652,"Ġavail":1653,"urz":1654,"rank":1655,"ĠInformation":1656,"yp":1657,"los":1658,"Ġfest":1659,"Ġagainst":1660,"Ġohne":1661,"hip":1662,"Ġfund":1663,"Ġmuch":1664,"Mit":1665,"Ġsur":1666,"Ġmich":1667,"Ġval":1668,"ĠInd":1669,"lage":1670,"Ġboth":1671,"Herr":1672,"under":1673,"bes":1674,"Ġused":1675,"Ġfuhr":1676,"Ġvis":1677,"lass":1678,"Ġequ":1679,"Ġprof":1680,"Ġtherefore":1681,"utions":1682,"Wh":1683,"Ġihrer":1684,"ahn":1685,"Ġwichtig":1686,"lobal":1687,"que":1688,"Ġlevel":1689,"ĠFre":1690,"Ġsollte":1691,"Ġregion":1692,"Ġvar":1693,"Ġmed":1694,"oren":1695,"Ġselbst":1696,"loy":1697,"Ġsign":1698,"grund":1699,"Ġhist":1700,"ierten":1701,"ĠSte":1702,"fern":1703,"Ġeuropaischen":1704,"Ġneuen":1705,"ife":1706,"viron":1707,"richt":1708,"ftware":1709,"fic":1710,"ustom":1711,"cept":1712,"Ġbring":1713,"Ġ15":1714,"ulation":1715,"ivid":1716,"ĠCon":1717,"Ġfull":1718,"etzen":1719,"ĠJahren":1720,"lichkeit":1721,"Ġgr":1722,"Ġplay":1723,"ux":1724,"Ġandere":1725,"ĠHer":1726,"Ġprovid":1727,"eut":1728,"Ġsocial":1729,"ĠRicht":1730,"reichen":1731,"ĠGerm":1732,"arten":1733,"Ġbo":1734,"Ġcountry":1735,"ically":1736,"eiten":1737,"agement":1738,"gend":1739,"Ġzwei":1740,"way":1741,"rage":1742,"fahren":1743,"ittee":1744,"loss":1745,"Ġlast":1746,"Ġbre":1747,"wert":1748,"Ġview":1749,"Ġdenn":1750,"Ġthink":1751,"Ġconf":1752,"its":1753,"ĠNach":1754,"cur":1755,"Ġfinan":1756,"ĠVers":1757,"Ġgroup":1758,"Ġwithout":1759,"Ġletz":1760,"Ġpoint":1761,"Ġstill":1762,"wick":1763,"vironment":1764,"St":1765,"Ġexper":1766,"over":1767,"work":1768,"Ġinst":1769,"Ġeigen":1770,"anden":1771,"ichte":1772,"ĠPre":1773,"ĠEntwicklung":1774,"Ġens":1775,"ĠY":1776,"unst":1777,"Ġmeas":1778,"Ġcr":1779,"rupp":1780,"Ġdenen":1781,"immt":1782,"Er":1783,"wir":1784,"Ġoper":1785,"Ġconsider":1786,"Ġsollten":1787,"iver":1788,"lim":1789,"lagen":1790,"Ġdifferent":1791,"ds":1792,"aff":1793,"Ġadv":1794,"ĠFrau":1795,"ache":1796,"Ġservices":1797,"Ġfinden":1798,"wort":1799,"Ġaccess":1800,"ĠPerson":1801,"ĠSicherheit":1802,"une":1803,"nahme":1804,"Ġgemeins":1805,"ĠMon":1806,"Ġmoglich":1807,"Ġdr":1808,"Ġmod":1809,"ĠAs":1810,"Ġset":1811,"aher":1812,"ĠFrage":1813,"ffen":1814,"ER":1815,"esen":1816,"ize":1817,"Ġpriv":1818,"ists":1819,"entral":1820,"uge":1821,"orte":1822,"org":1823,"Ġverschieden":1824,"ucht":1825,"Ġspec":1826,"ĠBet":1827,"ondere":1828,"Ġers":1829,"ope":1830,"ness":1831,"unde":1832,"ĠKommiss":1833,"Ġ18":1834,"Ġdown":1835,"zeug":1836,"Ġgovern":1837,"ritt":1838,"Ġatt":1839,"ationen":1840,"Ġfree":1841,"Ġprin":1842,"ollow":1843,"urg":1844,"ĠauÃŁer":1845,"Ġavailable":1846,"ĠPl":1847,"ĠBurger":1848,"olk":1849,"ĠWirt":1850,"aking":1851,"Ġrequire":1852,"How":1853,"Ġunterstutz":1854,"Ġable":1855,"tro":1856,"Ġback":1857,"raf":1858,"akt":1859,"let":1860,"Ġ12":1861,"uture":1862,"ibility":1863,"ants":1864,"Ġbietet":1865,"ready":1866,"maÃŁ":1867,"ĠDaten":1868,"Ġcurr":1869,"Ġspecial":1870,"okrat":1871,"ised":1872,"man":1873,"Ġkle":1874,"yn":1875,"Ġbusiness":1876,"alth":1877,"ability":1878,"ĠStr":1879,"Ġdazu":1880,"ience":1881,"vers":1882,"gar":1883,"ystems":1884,"ĠTur":1885,"ĠHin":1886,"ĠFe":1887,"tem":1888,"Ġsmall":1889,"Ġbefore":1890,"Ġlook":1891,"ahre":1892,"afur":1893,"Ġviele":1894,"Ġgeb":1895,"agen":1896,"Ġliegt":1897,"ispiel":1898,"Ġallen":1899,"Ġmachen":1900,"Ġcustom":1901,"ienst":1902,"Ġben":1903,"Ġweil":1904,"ĠPart":1905,"Ġalready":1906,"uk":1907,"ins":1908,"ahmen":1909,"Ġfuture":1910,"Ġgest":1911,"ÃŁen":1912,"Ġze":1913,"Ġbelieve":1914,"Ġbek":1915,"aben":1916,"Ġcor":1917,"Ġaller":1918,"ward":1919,"On":1920,"Ġair":1921,"ktur":1922,"ilt":1923,"ĠBr":1924,"Ġet":1925,"gang":1926,"druck":1927,"So":1928,"ased":1929,"cond":1930,"ĠFall":1931,"Ġhal":1932,"ĠMittel":1933,"fang":1934,"ders":1935,"Ġach":1936,"Ġsom":1937,"ves":1938,"Ġseiner":1939,"]]":1940,"ĠIs":1941,"welt":1942,"politik":1943,"All":1944,"Ġcourse":1945,"Ġopen":1946,"Ġdarauf":1947,"Ġtoday":1948,"utzen":1949,"annt":1950,"gramme":1951,"ars":1952,"Ġdesign":1953,"esell":1954,"achst":1955,"Ġproject":1956,"par":1957,"ismus":1958,"Ġtoo":1959,"ĠMoglichkeit":1960,"Ġjetzt":1961,"ĠStand":1962,"ĠAm":1963,"Ġfac":1964,"ving":1965,"Ġcann":1966,"Ġcompet":1967,"Ġexamp":1968,"Ġproducts":1969,"ctor":1970,"ets":1971,"folg":1972,"Ġservice":1973,"schuss":1974,"zen":1975,"Ġeing":1976,"Ġenvironment":1977,"omen":1978,"uchen":1979,"ĠAut":1980,"ĠThem":1981,"arkt":1982,"ting":1983,"ĠFinanz":1984,"itiz":1985,"Ġrespons":1986,"200":1987,"press":1988,"Fur":1989,"ica":1990,"ante":1991,"br":1992,"ination":1993,"Ġcannot":1994,"ajor":1995,"Ġfl":1996,"ĠRahmen":1997,"zus":1998,"Ġcertain":1999,"nisse":2000,"Ġstark":2001,"come":2002,"curity":2003,"lease":2004,"Ġdata":2005,"Ġprev":2006,"ĠAuss":2007,"Ġgeht":2008,"other":2009,"aterial":2010,"Ġrece":2011,"Ġeinfach":2012,"ĠMaÃŁnahmen":2013,"irm":2014,"amm":2015,"olution":2016,"ĠLage":2017,"etzung":2018,"Ġredu":2019,"Ġbro":2020,"ling":2021,"Ġfollow":2022,"andern":2023,"ately":2024,"Ġcase":2025,"raph":2026,"walt":2027,"tend":2028,"Ġbin":2029,"ĠTra":2030,"orn":2031,"lemen":2032,"Ġnam":2033,"Ġindivid":2034,"Ġneg":2035,"Ġcap":2036,"iving":2037,"pf":2038,"olid":2039,"20":2040,"Ġoffers":2041,"ĠZiel":2042,"Ġeinige":2043,"Ġdafur":2044,"Ġregard":2045,"ĠMed":2046,"Ġput":2047,"ĠVerein":2048,"operation":2049,"EN":2050,"Ġeas":2051,"ature":2052,"abei":2053,"Ġquestion":2054,"Ġimpro":2055,"ĠInformationen":2056,"ĠRechts":2057,"alle":2058,"red":2059,"aupt":2060,"pra":2061,"ode":2062,"Ġseit":2063,"Ġmir":2064,"ungsant":2065,"Ġ&":2066,"Ġter":2067,"ential":2068,"ĠGemein":2069,"inal":2070,"ccess":2071,"That":2072,"ĠStadt":2073,"Ġerw":2074,"Ġart":2075,"ulture":2076,"Ġje":2077,"ervice":2078,"ually":2079,"ove":2080,"eich":2081,"Ġintegr":2082,"ctions":2083,"ĠHerrn":2084,"ather":2085,"ergy":2086,"ified":2087,"imes":2088,"ĠGen":2089,"Ġfinancial":2090,"ĠAd":2091,"Ġchange":2092,"Ġcity":2093,"ahlen":2094,"Ġreas":2095,"ĠDem":2096,"utes":2097,"Ġrepr":2098,"Ġposit":2099,"Ġwaren":2100,"Ġhoch":2101,"Ġduring":2102,"Ġ[[":2103,"Ġ%":2104,"Ġrev":2105,"ichten":2106,"Ġcitiz":2107,"ilit":2108,"Ġfar":2109,"uh":2110,"iber":2111,"Ġihren":2112,"Ġkonnte":2113,"Ġzuruck":2114,"Ġactiv":2115,"Ġproblem":2116,"entlich":2117,"Ġprom":2118,"Ġhatte":2119,"Ġinvest":2120,"Ġday":2121,"Ġbesch":2122,"ĠInternet":2123,"Ġsaid":2124,"spr":2125,"Ġdeut":2126,"Ġallem":2127,"schrif":2128,"hol":2129,"lungs":2130,"cing":2131,"Ġnun":2132,"isierung":2133,"ĠJahre":2134,"Ġglobal":2135,"Ġlarge":2136,"ator":2137,"ichter":2138,"inen":2139,"aste":2140,"Ġachie":2141,"Ġmeans":2142,"gem":2143,"ĠPol":2144,"Ġissue":2145,"ogen":2146,"Ġproposal":2147,"Ġsaf":2148,"bsite":2149,"Ġexample":2150,"ufen":2151,"Ġstat":2152,"punkt":2153,"ily":2154,"oten":2155,"ransp":2156,"Ġask":2157,"ĠAmer":2158,"scheid":2159,"lossen":2160,"Re":2161,"ĠRuss":2162,"Ġmeine":2163,"reib":2164,"ird":2165,"Ġquality":2166,"Ġzusammen":2167,"ites":2168,"ways":2169,"isl":2170,"Ġapplic":2171,"gress":2172,"Ġmajor":2173,"Ġcost":2174,"tellen":2175,"ains":2176,"Ġmember":2177,"besondere":2178,"Ġ2009":2179,"Ġfol":2180,"Ġfamil":2181,"unter":2182,"halts":2183,"Ġmodern":2184,"heiten":2185,"Ġexce":2186,"Ġpresent":2187,"Ġeng":2188,"iele":2189,"nov":2190,"Ġmeet":2191,"ĠLos":2192,"udget":2193,"Ġsince":2194,"illion":2195,"ai":2196,"Ġnecess":2197,"Ġstrateg":2198,"Ġsituation":2199,"Ġ0":2200,"Ġdebate":2201,"Ġbesonder":2202,"Ġrooms":2203,"Ġentsp":2204,"Ġcomple":2205,"ether":2206,"fass":2207,"esse":2208,"amer":2209,"But":2210,"fuhrt":2211,"Ġwollen":2212,"ized":2213,"Ġsicher":2214,"Ġunseren":2215,"reit":2216,"ash":2217,"ĠCommissioner":2218,"antwort":2219,"haf":2220,"Ġeinge":2221,"Ġtechnolog":2222,"Ġref":2223,"ilities":2224,"leist":2225,"Ġchild":2226,"ktionen":2227,"ĠPal":2228,"eschaft":2229,"Ġamend":2230,"Ġcommon":2231,"blems":2232,"ĠWor":2233,"Ġcontr":2234,"Ġeach":2235,"Ġadop":2236,"lungen":2237,"gangen":2238,"Des":2239,"so":2240,"opp":2241,"Ġpass":2242,"ĠZimmer":2243,"Ġche":2244,"ude":2245,"Ġincluding":2246,"Ġplan":2247,"asch":2248,"Pro":2249,"omat":2250,"ĠCommittee":2251,"Ġpower":2252,"ĠKin":2253,"full":2254,"Ġcitizens":2255,"ĠParlaments":2256,"ĠKommissar":2257,"gleich":2258,"immung":2259,"ret":2260,"ipp":2261,"Ġschw":2262,"Ġcolle":2263,"Ġgar":2264,"ell":2265,"Nach":2266,"ĠMan":2267,"ĠSchw":2268,"Ġopt":2269,"rach":2270,"cip":2271,"ĠArbeits":2272,"Ġwahrend":2273,"ĠEnerg":2274,"stru":2275,"Ġland":2276,"raum":2277,"Ġstehen":2278,"ĠPolitik":2279,"ĠGesch":2280,"genommen":2281,"bed":2282,"Ġetwas":2283,"ieder":2284,"Ġthree":2285,"aurant":2286,"amt":2287,"ablish":2288,"vention":2289,"Ġsagen":2290,"Ġstay":2291,"orth":2292,"ule":2293,"Ġfound":2294,"Ġallow":2295,"Ġareas":2296,"kten":2297,"ĠEng":2298,"ining":2299,"asst":2300,"Ġobject":2301,"Ġrespect":2302,"Ġnext":2303,"Ġmeasures":2304,"Ġdoch":2305,"ĠVorschlag":2306,"Ġstud":2307,"¿½":2308,"ï¿½":2309,"Ġsozial":2310,"riend":2311,"ĠWir":2312,"ĠBest":2313,"ĠAll":2314,"ĠForm":2315,"Ġgive":2316,"zw":2317,"Ġfew":2318,"Ġorganis":2319,"Ġ/":2320,"Ġdemoc":2321,"However":2322,"Ġauthor":2323,"ĠBo":2324,"Ġpres":2325,"Ġ30":2326,"Ġensure":2327,"ziel":2328,"linie":2329,"Ġresult":2330,"Ġdiscuss":2331,"ĠBild":2332,"ĠEuro":2333,"Ġkomm":2334,"Ġret":2335,"Ġhistor":2336,"ught":2337,"Ġfurther":2338,"Ġprovide":2339,"Ġenergy":2340,"Ġthank":2341,"anken":2342,"arn":2343,"Ġtun":2344,"schaften":2345,"Ġwissen":2346,"gew":2347,"Ġbr":2348,"Ġtaken":2349,"Ġinsbesondere":2350,"Ġsuccess":2351,"ĠLander":2352,"falls":2353,"Ġfil":2354,"ordnung":2355,"Ġbuild":2356,"Ġagreement":2357,"Ġcall":2358,"Ġerhalten":2359,"Ġcontrol":2360,"ĠPh":2361,"ĠUr":2362,"Ġcal":2363,"Ġaddition":2364,"Ġerm":2365,"co":2366,"Ġdet":2367,"pla":2368,"agt":2369,"stutzung":2370,"uten":2371,"ĠPar":2372,"ĠMill":2373,"iate":2374,"ases":2375,"Ġeinmal":2376,"ÃŁe":2377,"indet":2378,"itor":2379,"Ġgrow":2380,"Ġemploy":2381,"Our":2382,"pecial":2383,"With":2384,"Ġabs":2385,"Ġpay":2386,"Ġlink":2387,"ampf":2388,"Ġestablish":2389,"Ġposition":2390,"ĠKont":2391,"uft":2392,"gre":2393,"ilfe":2394,"por":2395,"ultural":2396,"ĠVerfug":2397,"iff":2398,"legt":2399,"Ġread":2400,"ried":2401,"tschaft":2402,"ott":2403,"Ġvo":2404,"ierungs":2405,"Ġkommen":2406,"ek":2407,"wirt":2408,"chnolog":2409,"ditions":2410,"itaten":2411,"igten":2412,"Ġlaw":2413,"ĠProblem":2414,"Ġmus":2415,"bau":2416,"19":2417,"uter":2418,"Ġbeim":2419,"Ġcome":2420,"ules":2421,"Ġsk":2422,"Ġinde":2423,"urf":2424,"ĠDeut":2425,"Ġopport":2426,"Ġpop":2427,"ahe":2428,"jekt":2429,"AN":2430,"ross":2431,"Ġel":2432,"AT":2433,"ĠKunden":2434,"uche":2435,"Ġersten":2436,"Ġproblems":2437,"Ġshall":2438,"ĠMarkt":2439,"allen":2440,"ĠSu":2441,"ements":2442,"ca":2443,"Uns":2444,"ĠItal":2445,"ĠGo":2446,"burg":2447,"Ġnecessary":2448,"Ġdu":2449,"Ġcompany":2450,"igkeiten":2451,"Ġdid":2452,"cken":2453,"ĠÐ":2454,"Eine":2455,"app":2456,"ĠZusammenarbeit":2457,"Auf":2458,"bo":2459,"Ġem":2460,"ises":2461,"Ġterr":2462,"ĠGroup":2463,"Ġlassen":2464,"pend":2465,"unic":2466,"Ġprincip":2467,"ave":2468,"ĠKomp":2469,"Ġdrei":2470,"ĠQual":2471,"ichts":2472,"Ġkey":2473,"ĠRes":2474,"Ġgiven":2475,"Ġpract":2476,"Ġlegisl":2477,"Ġbudget":2478,"ĠUnterstutzung":2479,"ĠAt":2480,"Ġsimp":2481,"ĠNamen":2482,"Ġsecurity":2483,"esser":2484,"ĠIm":2485,"ĠGer":2486,"arch":2487,"Ġwirk":2488,"ĠUmwelt":2489,"Ġgeben":2490,"Ġinvol":2491,"Ġerst":2492,"Ġ|":2493,"tellung":2494,"esellschaft":2495,"iter":2496,"Ġhealth":2497,"IN":2498,"Ġhope":2499,"To":2500,"ising":2501,"Ġwhy":2502,"orgen":2503,"Ġhowever":2504,"ared":2505,"Ġlead":2506,"rop":2507,"Ġentwick":2508,"schied":2509,"Ġsecond":2510,"ĠmuÃŁ":2511,"He":2512,"Ġander":2513,"ĠZug":2514,"reng":2515,"Ġinform":2516,"bewer":2517,"elf":2518,"iety":2519,"joy":2520,"Ġchar":2521,"ively":2522,"ĠProble":2523,"Ġ25":2524,"Ġwhile":2525,"wards":2526,"ĠMus":2527,"Ġcooperation":2528,"isation":2529,"ES":2530,"lar":2531,"lang":2532,"Ġbesteht":2533,"gether":2534,"ĠSpiel":2535,"Ġwirtschaft":2536,"ĠRecht":2537,"aden":2538,"Ġimm":2539,"Ġware":2540,"kauf":2541,"lect":2542,"ĠChina":2543,"Ġlocated":2544,"nell":2545,"von":2546,"Ġwish":2547,"Ġfra":2548,"Ġstart":2549,"Ġlife":2550,"ĠAnderungsant":2551,"Ġkurz":2552,"Ġprotection":2553,"ald":2554,"Sch":2555,"Ġrefer":2556,"Ġimplement":2557,"Ġ14":2558,"fuhrung":2559,"Ġtradition":2560,"ĠDienst":2561,"ĠLandern":2562,"Ġcomplete":2563,"asser":2564,"Ġalways":2565,"rad":2566,"atze":2567,"Ġneeds":2568,"text":2569,"ĠRo":2570,"licht":2571,"En":2572,"At":2573,"Ġsteht":2574,"Ġwrit":2575,"less":2576,"Ġsehen":2577,"Ġseinen":2578,"of":2579,"ury":2580,"ĠX":2581,"Ġbeh":2582,"zieh":2583,"rim":2584,"earch":2585,"Ġvote":2586,"ĠMein":2587,"wendung":2588,"ĠTag":2589,"ĠGeschaf":2590,"ĠSh":2591,"ĠDeb":2592,"Ġ11":2593,"ums":2594,"Ġstatt":2595,"affen":2596,"Ġcomb":2597,"by":2598,"Ġsens":2599,"Ġkomp":2600,"Ġakt":2601,"Ġhapp":2602,"Wie":2603,"Ġbetter":2604,"ĠSystem":2605,"schein":2606,"ĠIch":2607,"ande":2608,"Ġ16":2609,"ustrie":2610,"Ġmult":2611,"Ġverw":2612,"ĠFragen":2613,"ivil":2614,"ĠUnited":2615,"eten":2616,"zess":2617,"ettbewer":2618,"ichterst":2619,"tain":2620,"Ġdabei":2621,"Ġtre":2622,"Ġaction":2623,"ĠBeit":2624,"ique":2625,"atch":2626,"Ġinterest":2627,"fre":2628,"Ġglaub":2629,"weg":2630,"ĠSw":2631,"ĠHouse":2632,"Se":2633,"Ġaccount":2634,"ĠÂ":2635,"ĠKollegen":2636,"ialog":2637,"ĠRom":2638,"Ġmen":2639,"angen":2640,"Ġnet":2641,"Ġir":2642,"Ġnor":2643,"ĠLebens":2644,"Ġlegal":2645,"ĠRest":2646,"bereich":2647,"Ġfiel":2648,"sequ":2649,"ĠPort":2650,"gaben":2651,"Ġusing":2652,"Ġletzten":2653,"rechte":2654,"racht":2655,"ĠDes":2656,"Ġfav":2657,"ĠFran":2658,"Ġworden":2659,"Ġcho":2660,"markt":2661,"iste":2662,"iation":2663,"ty":2664,"Ġdefin":2665,"iod":2666,"ĠRed":2667,"enten":2668,"ikan":2669,"obil":2670,"blick":2671,"Ġ17":2672,"Ġbl":2673,"Ġoffent":2674,"atte":2675,"Ġmov":2676,"Ġble":2677,"undheit":2678,"Ġconsum":2679,"Ġsing":2680,"gehen":2681,"ĠEnergie":2682,"clus":2683,"Ġ2010":2684,"ingungen":2685,"Ġ2008":2686,"Ġreach":2687,"ĠBedeut":2688,"ĠCommunity":2689,"Ġmet":2690,"Ġbased":2691,"Ġaround":2692,"ustry":2693,"Ġconne":2694,"ĠSchluss":2695,"Ġtransport":2696,"ĠgroÃŁen":2697,"ĠRegierung":2698,"gabe":2699,"stellen":2700,"iges":2701,"kon":2702,"ĠVerfugung":2703,"Ġderen":2704,"ĠgroÃŁe":2705,"abil":2706,"gestellt":2707,"stellung":2708,"ĠSpe":2709,"Ġwelche":2710,"Ġterms":2711,"Ġworking":2712,"Ġcurrent":2713,"ify":2714,"uc":2715,"Ġ50":2716,"lev":2717,"30":2718,"ĠBedeutung":2719,"ged":2720,"ĠEntscheid":2721,"ĠUSA":2722,"Ġinner":2723,"ervor":2724,"ruh":2725,"zept":2726,"ĠSeite":2727,"Ġproduction":2728,"Ġshort":2729,"Ġbecome":2730,"ĠForder":2731,"utzt":2732,"offe":2733,"hof":2734,"Ġwhether":2735,"uments":2736,"eder":2737,"ĠBl":2738,"plan":2739,"ĠBel":2740,"ficult":2741,"Ġless":2742,"Ġcrit":2743,"isher":2744,"Ġparticularly":2745,"ĠErgeb":2746,"Ġnon":2747,"Ġcentre":2748,"Ġlim":2749,"ĠAusschuss":2750,"Ġextre":2751,"Ġindividual":2752,"ĠDas":2753,"Ġtogether":2754,"ĠSer":2755,"ĠRegion":2756,"Ġdifficult":2757,"leit":2758,"osition":2759,"Ġanother":2760,"load":2761,"ĠQu":2762,"Ġnear":2763,"Ġvisit":2764,"ruktur":2765,"Ġorig":2766,"ferenz":2767,"pporte":2768,"ĠHaupt":2769,"asse":2770,"Ġdist":2771,"bild":2772,"Ġstate":2773,"Ġresearch":2774,"Ġtrade":2775,"iar":2776,"Ġwater":2777,"ĠSchutz":2778,"ĠSk":2779,"Ġclos":2780,"Ġbene":2781,"Ġhim":2782,"anies":2783,"Ġcare":2784,"Ġbel":2785,"Ġchildren":2786,"immen":2787,"ĠFamil":2788,"orts":2789,"ĠVertrag":2790,"pecially":2791,"Ġbeach":2792,"bene":2793,"Ġnotwend":2794,"Ġcontrib":2795,"Ġwhole":2796,"tract":2797,"Ġexist":2798,"ON":2799,"ots":2800,"room":2801,"ĠWer":2802,"haus":2803,"Ð¾":2804,"Ġtour":2805,"Ġissues":2806,"ton":2807,"Ġjeder":2808,"Ġbieten":2809,"Ġlocal":2810,"ners":2811,"Ġhervor":2812,"akes":2813,"ands":2814,"ĠRegel":2815,"ural":2816,"Ġconditions":2817,"Ġdavon":2818,"entrum":2819,"arante":2820,"50":2821,"ĠZuk":2822,"Ġ100":2823,"ĠOff":2824,"Ġspecific":2825,"ĠFun":2826,"ĠThema":2827,"Ġdaruber":2828,"Ġricht":2829,"Ġsl":2830,"Ġreason":2831,"Ġfriend":2832,"Ġentfern":2833,"iew":2834,"Ġkm":2835,"Ġerforder":2836,"Ġenjoy":2837,"ĠMal":2838,"Ġbrauch":2839,"Ġeben":2840,"ording":2841,"vest":2842,"Ġaff":2843,"Ġaddress":2844,"Ġsubject":2845,"Fra":2846,"Ġshow":2847,"Ġgegenuber":2848,"Ġstellen":2849,"ĠWirtschafts":2850,"Ġ2007":2851,"Ġbook":2852,"rieden":2853,"Bei":2854,"fah":2855,"Ġdaher":2856,"adies":2857,"Ġsystems":2858,"olf":2859,"Ġalles":2860,"Ġrole":2861,"ody":2862,"lock":2863,"ategor":2864,"Ġfr":2865,"ĠKinder":2866,"ĠUN":2867,"Ġzahl":2868,"Ġschnell":2869,"Ġtax":2870,"Ġvarious":2871,"ikel":2872,"ours":2873,"Ġstell":2874,"ennt":2875,"ĠWeise":2876,"What":2877,"Ġrapporte":2878,"row":2879,"ĠFahr":2880,"ika":2881,"ails":2882,"schutz":2883,"Ġeigenen":2884,"Ġrun":2885,"Ġexperience":2886,"ente":2887,"ĠProbleme":2888,"jahr":2889,"reg":2890,"Ġ24":2891,"wirk":2892,"When":2893,"Ġwomen":2894,"ĠComp":2895,"ĠService":2896,"Ġorgan":2897,"wart":2898,"wirtschaft":2899,"aster":2900,"telle":2901,"gemein":2902,"isions":2903,"Ġpage":2904,"Ġcompanies":2905,"Ġold":2906,"Ġsowohl":2907,"Und":2908,"ĠBeispiel":2909,"Ġstep":2910,"Ġindustry":2911,"isches":2912,"ĠBerichterst":2913,"\",":2914,"Ġsector":2915,"Ġpolitischen":2916,"Ġbasis":2917,"Ġguarante":2918,"ences":2919,"ĠHaushalts":2920,"Ġbefindet":2921,"Ġweitere":2922,"ĠInternational":2923,"Ġaim":2924,"ino":2925,"llent":2926,"ĠBus":2927,"eign":2928,"Ne":2929,"AR":2930,"ĠBen":2931,"ĠSan":2932,"ĠWeg":2933,"pre":2934,"esehen":2935,"ĠMrs":2936,"Ver":2937,"Ġocc":2938,"They":2939,"Ġverfug":2940,"ĠFrauen":2941,"oney":2942,"Ġdort":2943,"ĠTr":2944,"ĠEUR":2945,"itiative":2946,"Ġerreichen":2947,"usatz":2948,"ches":2949,"Ġcomfort":2950,"Ġprofession":2951,"thing":2952,"Ġpack":2953,"Ġmeiner":2954,"Ġreally":2955,"ĠIhrer":2956,"ĠStra":2957,"ober":2958,"ĠAir":2959,"sk":2960,"Ġbeaut":2961,"Ġnaturlich":2962,"Ġdeal":2963,"Ġmatter":2964,"Ġwirklich":2965,"Ġgel":2966,"Ġcommit":2967,"ec":2968,"geord":2969,"Ġsever":2970,"Ġdi":2971,"ĠProdukt":2972,"ĠGu":2973,"Ġann":2974,"Ġgesam":2975,"reaty":2976,"ĠGerman":2977,"Ġarbeit":2978,"Ġlo":2979,"fect":2980,"Ġcol":2981,"ĠBesch":2982,"Ġtyp":2983,"ĠTurke":2984,"ĠTrans":2985,"Ġthird":2986,"Ġbesonders":2987,"Ġinnov":2988,"ĠPark":2989,"ritte":2990,"Was":2991,"ĠLa":2992,"ĠGew":2993,"Ġdistr":2994,"Ġprior":2995,"Ġmonth":2996,"ĠZukunft":2997,"\".":2998,"Ġbar":2999,"Ġespecially":3000,"Ġbreak":3001,"chan":3002,"ived":3003,"Ġperiod":3004,"ĠDer":3005,"ably":3006,"Ġihnen":3007,"Ġmembers":3008,"Ġgovernment":3009,"Ġgent":3010,"Ġdone":3011,"ances":3012,"til":3013,"Ġstaff":3014,"Ġclose":3015,"Ġverschiedenen":3016,"ĠStaaten":3017,"Ġdoc":3018,"Ġunterstutzen":3019,"osen":3020,"Ġproced":3021,"ĠGeschafts":3022,"ĠQualitat":3023,"ifiz":3024,"ĠStud":3025,"ĠWahr":3026,"Ġ13":3027,"iere":3028,"ization":3029,"ĠEnde":3030,"ety":3031,"Ġmot":3032,"Ġshe":3033,"zuf":3034,"finden":3035,"werk":3036,"Ġentfernt":3037,"Ġfood":3038,"ograph":3039,"ides":3040,"ival":3041,"ean":3042,"atten":3043,"treten":3044,"Ġinnerhalb":3045,"dings":3046,"Ġtop":3047,"uhl":3048,"IT":3049,"ething":3050,"ican":3051,"ĠForsch":3052,"Ġpersonal":3053,"Ġcreate":3054,"Ġnegot":3055,"Ġstrong":3056,"ĠSeiten":3057,"ĠFol":3058,"Ġvielen":3059,"Ġteil":3060,"Ġturn":3061,"Ġprivate":3062,"These":3063,"inter":3064,"Ġlocation":3065,"neh":3066,"ĠSituation":3067,"trodu":3068,"Ġrepresent":3069,"Ġsite":3070,"Ġperform":3071,"Ġinstit":3072,"ĠRolle":3073,"Ġgener":3074,"asing":3075,"Ġapproach":3076,"duc":3077,"Ġple":3078,"Ġsum":3079,"Ġpress":3080,"ichtet":3081,"Ġprop":3082,"imate":3083,"Ġans":3084,"Ġenter":3085,"Ġbew":3086,"Ġzwar":3087,"Ġsoc":3088,"scheiden":3089,"Ġgewahr":3090,"Ġreform":3091,"prache":3092,"weisen":3093,"Ġevent":3094,"ĠLin":3095,"oment":3096,"liegen":3097,"ension":3098,"Ġdra":3099,"sen":3100,"ĠKr":3101,"Ġinternationalen":3102,"Ġbetr":3103,"Ġamong":3104,"ĠDeutsch":3105,"fast":3106,"Ġwelt":3107,"ĠProgramm":3108,"Ġmillion":3109,"schriften":3110,"Ġjob":3111,"Ġsingle":3112,"schluss":3113,"Ġpoin":3114,"tes":3115,"Ġkonnten":3116,"ĠWettbewer":3117,"Ġdecision":3118,"Ġtransp":3119,"Ġmochten":3120,"indung":3121,"ordin":3122,"Ġitself":3123,"zip":3124,"Ġsomething":3125,"Ġinstall":3126,"ults":3127,"Ġbestimm":3128,"Ġho":3129,"Aus":3130,"lands":3131,"Ġlangu":3132,"Ġstar":3133,"wh":3134,"Ġseveral":3135,"ĠEs":3136,"Ġgeneral":3137,"Ġfuhren":3138,"Ġpat":3139,"Ġstruct":3140,"oor":3141,"Ġdoub":3142,"11":3143,"uth":3144,"iol":3145,"Ġmaterial":3146,"Ġresour":3147,"tragen":3148,"ians":3149,"Ġlist":3150,"Um":3151,"Ġfavour":3152,"Ġinc":3153,"ĠGegen":3154,"ĠFest":3155,"ift":3156,"ittle":3157,"onds":3158,"isis":3159,"ĠKunst":3160,"ruppe":3161,"ĠRichtlinie":3162,"tember":3163,"Ġtown":3164,"uellen":3165,"go":3166,"And":3167,"klar":3168,"Ġaufge":3169,"Ġdirekt":3170,"auer":3171,"IS":3172,"ĠJan":3173,"ktor":3174,"Ġmaking":3175,"ĠUhr":3176,"Ġenc":3177,"Ġcontinue":3178,"'t":3179,"Ġlet":3180,"rael":3181,"Ġhinaus":3182,"Ġprogramme":3183,"ĠWoch":3184,"mework":3185,"lauf":3186,"produ":3187,"Ġresolution":3188,"neten":3189,"ĠVerbrauch":3190,"ĠDisk":3191,"Ġleast":3192,"ĠLie":3193,"Ġdur":3194,"recht":3195,"ĠIhren":3196,"ification":3197,"Ġtro":3198,"Ġautomat":3199,"ĠTerr":3200,"mos":3201,"Ġgentlemen":3202,"Ġfollowing":3203,"cel":3204,"Ġaccept":3205,"ksam":3206,"ĠAfr":3207,"ĠNutz":3208,"Ġintrodu":3209,"ĠNatur":3210,"Ġess":3211,"stra":3212,"ĠRuck":3213,"iations":3214,"Ġgra":3215,"Auch":3216,"Ġprogress":3217,"Als":3218,"Ġserious":3219,"ĠStrateg":3220,"Ġaway":3221,"ĠSoftware":3222,"Ġpeace":3223,"ĠHo":3224,"orm":3225,"Ġrelations":3226,"Ġgoing":3227,"ĠTour":3228,"Ġexcellent":3229,"Ġkind":3230,"Ġoften":3231,"erien":3232,"alitat":3233,"Aber":3234,"nehmer":3235,"atives":3236,"Ġopin":3237,"Ġhome":3238,"hens":3239,"yl":3240,"Ġstreng":3241,"Ġtext":3242,"komm":3243,"bei":3244,"ifen":3245,"ĠNot":3246,"gric":3247,"Ġ:":3248,"Ġmanagement":3249,"uff":3250,"miss":3251,"CH":3252,"ĠEl":3253,"ĠGermany":3254,"Ġerste":3255,"zeitig":3256,"Ġname":3257,"uÃŁen":3258,"Ġunderstand":3259,"Ġfamily":3260,"ĠPra":3261,"Ġparticip":3262,"met":3263,"urd":3264,"Ġrules":3265,"Ġdirective":3266,"ĠFort":3267,"Ġhatten":3268,"Ġ2000":3269,"Ġeuropaische":3270,"aps":3271,"ĠMad":3272,"Ðµ":3273,"lik":3274,"Ġoffen":3275,"Ġcrisis":3276,"ĠWahl":3277,"strument":3278,"Ġapart":3279,"stimmung":3280,"Ġanal":3281,"Ġrapporteur":3282,"Ġcontact":3283,"ĠHotels":3284,"wand":3285,"Ð¸":3286,"Ġbenef":3287,"icle":3288,"Ġsett":3289,"ierungen":3290,"alls":3291,"ĠMark":3292,"wahl":3293,"ĠChr":3294,"though":3295,"ype":3296,"unsch":3297,"ielen":3298,"ĠMeinung":3299,"Ġbal":3300,"Ġrecht":3301,"emp":3302,"Ġfeel":3303,"Ġline":3304,"oto":3305,"Ġmoney":3306,"Ġforward":3307,"Ġtowards":3308,"Ġsoftware":3309,"Ġexpress":3310,"Hier":3311,"Ġonce":3312,"Ġklar":3313,"arf":3314,"leistungen":3315,"iken":3316,"12":3317,"ĠGaste":3318,"Ġeinzel":3319,"ĠNew":3320,"Ġrange":3321,"Ġprice":3322,"Ġmach":3323,"Da":3324,"Ġextrem":3325,"pekt":3326,"Ġwelcome":3327,"stuck":3328,"the":3329,"bet":3330,"istic":3331,"Ġonline":3332,"Ġfast":3333,"ony":3334,"Ġetc":3335,"ĠGesundheit":3336,"ĠFr":3337,"Ġthings":3338,"Ġabsol":3339,"Ġlittle":3340,"voll":3341,"ĠWind":3342,"zogen":3343,"ĠBerlin":3344,"Ġrecog":3345,"Ġdest":3346,"ference":3347,"AS":3348,"thers":3349,"Ġinstitutions":3350,"ĠZusammenhang":3351,"Ð°":3352,"ativen":3353,"Ġmention":3354,"Ġcommunic":3355,"Ġident":3356,"ckt":3357,"teilung":3358,"Ġpost":3359,"imal":3360,"ĠOn":3361,"DE":3362,"Ġuntil":3363,"ĠRep":3364,"Ġregul":3365,"ĠAbgeord":3366,"weis":3367,"Ġbeiden":3368,"Ġmilit":3369,"Ġunserem":3370,"Ġhoh":3371,"ĠFisch":3372,"vent":3373,"Ab":3374,"outh":3375,"Ġkommt":3376,"OR":3377,"Ġdays":3378,"ĠWorld":3379,"ĠUnivers":3380,"Ġant":3381,"iesen":3382,"Ġwalk":3383,"ww":3384,"ison":3385,"Ġcustomers":3386,"ĠDire":3387,"ĠEntwicklungs":3388,"ĠMet":3389,"airs":3390,"Ġfinanz":3391,"Ġaid":3392,"ĠTreaty":3393,"half":3394,"zimmer":3395,"ĠFrank":3396,"Ġbetra":3397,"kre":3398,"ruppen":3399,"Ġentsprechen":3400,"bt":3401,"ĠPartner":3402,"Ġmar":3403,"Ġincrease":3404,"ĠBuch":3405,"ĠPersonen":3406,"ĠHilfe":3407,"ieten":3408,"idence":3409,"Ġagree":3410,"ĠEmp":3411,"ĠEntschlieÃŁ":3412,"lean":3413,"Ġ198":3414,"ĠPlan":3415,"Ġbestehen":3416,"Ġopportunity":3417,"Ġve":3418,"leicht":3419,"eits":3420,"ĠTat":3421,"ĠNov":3422,"ĠKre":3423,"omb":3424,"itions":3425,"ĠKomm":3426,"Ġweltweit":3427,"gra":3428,"standen":3429,"liches":3430,"ager":3431,"Ġrather":3432,"eu":3433,"afen":3434,"Ġkeep":3435,"ĠKultur":3436,"ĠBank":3437,"ĠZwe":3438,"idency":3439,"Ġgrowth":3440,"Ġsitu":3441,"ller":3442,"Ġfunction":3443,"Ġactivities":3444,"Ġ2006":3445,"ĠBerichterstatter":3446,"Ġren":3447,"baren":3448,"ĠZahl":3449,"ĠSpan":3450,"ĠInvest":3451,"Ġmind":3452,"ocus":3453,"Ġhard":3454,"imum":3455,"ĠVerantwort":3456,"fassung":3457,"Ġquite":3458,"edom":3459,"weil":3460,"ĠSa":3461,"ĠCl":3462,"Ġstellt":3463,"Ġelect":3464,"Ġbringen":3465,"Ġgrund":3466,"Ġil":3467,"ĠLosung":3468,"Ġfolgen":3469,"ĠTechnolog":3470,"Ġbzw":3471,"side":3472,"Ġcheck":3473,"forderungen":3474,"Ġja":3475,"Ġseem":3476,"ĠUms":3477,"falt":3478,"Ġpositive":3479,"ĠArtikel":3480,"Ġprovided":3481,"ĠPrasidentin":3482,"Ġideal":3483,"annten":3484,"Ġsw":3485,"Ġtry":3486,"ĠVolk":3487,"ĠKlim":3488,"Ġbegru":3489,"Ġresources":3490,"ana":3491,"Ġbig":3492,"ĠLeben":3493,"ĠDies":3494,"cri":3495,"ona":3496,"ĠSep":3497,"ĠKo":3498,"Ġpartners":3499,"Ġsug":3500,"Ġdev":3501,"Ġweniger":3502,"Ġdaran":3503,"tag":3504,"Ġmean":3505,"Ġtreat":3506,"Ġindem":3507,"Ġmight":3508,"ined":3509,"rolle":3510,"stadt":3511,"Ġbehalf":3512,"ĠDemokrat":3513,"erecht":3514,"achlich":3515,"ĠJul":3516,"ĠFil":3517,"Ġchang":3518,"Ġgilt":3519,"racy":3520,"Le":3521,"ommend":3522,"Ġfully":3523,"ports":3524,"ĠIt":3525,"reiche":3526,"ĠNational":3527,"Ġetwa":3528,"ideo":3529,"ucksicht":3530,"ĠRaum":3531,"ĠOp":3532,"ĠMehr":3533,"Ġport":3534,"ĠAnd":3535,"ĠOrganis":3536,"apan":3537,"Ġclass":3538,"ames":3539,"yr":3540,"mosph":3541,"Ġgesagt":3542,"abhang":3543,"Ġjeden":3544,"prasident":3545,"Ġeffic":3546,"amb":3547,"Ġinclude":3548,"Ġfour":3549,"ĠMinister":3550,"Â®":3551,"Ġnamlich":3552,"Ġlab":3553,"Ġgeh":3554,"Ġsignific":3555,"wohl":3556,"amental":3557,"ĠCent":3558,"iful":3559,"ij":3560,"Ġyet":3561,"legenheit":3562,"Ġbitte":3563,"ĠDurch":3564,"Ġgute":3565,"Ġvalue":3566,"letz":3567,"ĠPla":3568,"fert":3569,"igungs":3570,"einander":3571,"Ġpark":3572,"Ġhaving":3573,"Ġpur":3574,"Ġladies":3575,"ĠSchul":3576,"Ġtechnology":3577,"Am":3578,"OM":3579,"prochen":3580,"Ġentscheiden":3581,"Ġmag":3582,"Ġsogar":3583,"frage":3584,"volk":3585,"ratic":3586,"bon":3587,"Ġgenau":3588,"Ġfield":3589,"Ġbor":3590,"na":3591,"ĠRates":3592,"hunder":3593,"ops":3594,"Ġproposals":3595,"ĠSozial":3596,"icial":3597,"ĠMembers":3598,"ĠGren":3599,"Ġadmin":3600,"inge":3601,"Ġear":3602,"Ġamendments":3603,"wendet":3604,"ĠState":3605,"Ġverl":3606,"alten":3607,"Ġeduc":3608,"ĠSeptember":3609,"Ġgerade":3610,"ĠZugang":3611,"Ġalong":3612,"Ġumf":3613,"Ġarch":3614,"ĠProdukte":3615,"Ġgef":3616,"iten":3617,"ctive":3618,"Ġremain":3619,"ĠErfahr":3620,"Ġerfolg":3621,"Ġbekannt":3622,"Ġsolution":3623,"cen":3624,"illa":3625,"Ġframework":3626,"Ġtimes":3627,"ured":3628,"Ġleft":3629,"Ġnehmen":3630,"self":3631,"Ġpa":3632,"sh":3633,"ĠEuropas":3634,"ĠMillionen":3635,"armon":3636,"Ġlog":3637,"Ġkosten":3638,"fully":3639,"lei":3640,"Ġmacht":3641,"Ġsafety":3642,"achten":3643,"Ġminutes":3644,"anst":3645,"ĠGeld":3646,"verb":3647,"Ġrecommend":3648,"Ġcosts":3649,"ennen":3650,"ales":3651,"Ġlight":3652,"ĠKor":3653,"Ġabove":3654,"onnen":3655,"Ġspeak":3656,"Ġeconomy":3657,"stant":3658,"ĠPunkt":3659,"ĠProjekt":3660,"Ġeasy":3661,"oph":3662,"Ġihn":3663,"iberal":3664,"altung":3665,"most":3666,"Ġothers":3667,"Ġadopted":3668,"za":3669,"Ġnie":3670,"Ġtaking":3671,"Ġessential":3672,"ĠSc":3673,"AL":3674,"ĠJahres":3675,"Ġpolitische":3676,"Ġunterschied":3677,"ledge":3678,"Ġebenfalls":3679,"Ġweek":3680,"ethod":3681,"Ġflo":3682,"Ġmeisten":3683,"Ġstrength":3684,"ĠKosten":3685,"Ġihm":3686,"ĠBas":3687,"ĠText":3688,"Ġcreat":3689,"ustand":3690,"handlungen":3691,"Ġgemacht":3692,"ĠFraktion":3693,"Ġseinem":3694,"Ġfordern":3695,"onen":3696,"Ġmakes":3697,"ĠgroÃŁer":3698,"roffen":3699,"uhren":3700,"Ġviol":3701,"Ġcontent":3702,"Ġled":3703,"ĠBezug":3704,"Ġentire":3705,"Ġverbunden":3706,"Ġopinion":3707,"Ġcharac":3708,"platz":3709,"ĠAss":3710,"Ġdessen":3711,"ysteme":3712,"ĠAnge":3713,"Ġbesser":3714,"ĠOrt":3715,"iben":3716,"ĠPe":3717,"ĠAustr":3718,"Ġstre":3719,"iers":3720,"Ġpast":3721,"Ġbank":3722,"Ġcalled":3723,"Ġchallen":3724,"Ġrela":3725,"Ġgehen":3726,"Ġagric":3727,"Ġdef":3728,"uz":3729,"Ġdarf":3730,"ĠGar":3731,"han":3732,"Ġflex":3733,"Ġsuf":3734,"Ġbath":3735,"bare":3736,"Ġreturn":3737,"Ġanges":3738,"luck":3739,"ĠPreis":3740,"ĠForderung":3741,"atures":3742,"ĠSchlussel":3743,"nete":3744,"Ġnever":3745,"Ġlegislation":3746,"Ġwebsite":3747,"Ġtool":3748,"Man":3749,"reen":3750,"Ġfocus":3751,"Ġwesent":3752,"Ġunterstutzt":3753,"ĠWirtschaft":3754,"aurants":3755,"Ġ21":3756,"Ġterm":3757,"ĠRats":3758,"Ġca":3759,"reicht":3760,"Ġapplication":3761,"mark":3762,"word":3763,"Ġak":3764,"igital":3765,"iled":3766,"Ġresults":3767,"Ġfru":3768,"Ġsure":3769,"kunft":3770,"Dieses":3771,"tels":3772,"ĠRechte":3773,"Ġbuilding":3774,"aged":3775,"ĠInstitution":3776,"Ġpoints":3777,"Ġprovides":3778,"sweise":3779,"Ġdarin":3780,"Ġdeliver":3781,"Deshalb":3782,"Alle":3783,"Ġfreedom":3784,"Ġprojects":3785,"Ġrep":3786,"vernment":3787,"oglichen":3788,"Ġ40":3789,"Ġattention":3790,"Ġfair":3791,"Ġbeginn":3792,"Ġdue":3793,"Ġpolicies":3794,"Ġprogramm":3795,"iner":3796,"benso":3797,"arian":3798,"pflicht":3799,"isiert":3800,"Ġconcerned":3801,"ĠStad":3802,"ĠVerkehr":3803,"ric":3804,"Ġheart":3805,"arliament":3806,"ĠWeb":3807,"Ġpot":3808,"Ġstandard":3809,"enk":3810,"irc":3811,"Ġcover":3812,"ĠFrei":3813,"oting":3814,"Ġresponsibility":3815,"Ġoffentlichen":3816,"Ġglaube":3817,"ĠIsrael":3818,"Ġ2005":3819,"igr":3820,"Ġrisk":3821,"gebung":3822,"Ġsimply":3823,"Ġbeautiful":3824,"ĠKap":3825,"EL":3826,"Ġdurfen":3827,"ĠJanu":3828,"ufact":3829,"Ġmass":3830,"Ġeinigen":3831,"ĠApp":3832,"fehl":3833,"Ġderzeit":3834,"Ġappropr":3835,"âĤ":3836,"now":3837,"reiben":3838,"ators":3839,"Ġnichts":3840,"âĤ¬":3841,"mitted":3842,"ested":3843,"Ġquestions":3844,"ĠDeutschland":3845,"Ġperfect":3846,"Ġschaffen":3847,"uren":3848,"cr":3849,"lag":3850,"Ġgroups":3851,"chten":3852,"Ġteam":3853,"Ġimportance":3854,"Ġyoung":3855,"ĠGemeinschaft":3856,"berg":3857,"Hotel":3858,"hing":3859,"ĠMeer":3860,"Ġtotal":3861,"lling":3862,"Ġdom":3863,"grenz":3864,"ning":3865,"ader":3866,"Ġversch":3867,"ifft":3868,"Ġmoder":3869,"ĠAntw":3870,"Ġeffective":3871,"Ġbit":3872,"Ġsollen":3873,"bour":3874,"ĠCan":3875,"schlieÃŁlich":3876,"Ġsociety":3877,"ustain":3878,"ĠWebsite":3879,"ief":3880,"EC":3881,"Ġcontext":3882,"ender":3883,"Dar":3884,"Ġihrem":3885,"ĠRei":3886,"Ġhead":3887,"Ġbrauchen":3888,"ada":3889,"ĠWasser":3890,"Ġknown":3891,"ĠBeschaft":3892,"ĠFlug":3893,"Ġkeinen":3894,"Ġnationalen":3895,"ios":3896,"Ġgreater":3897,"Ġabge":3898,"Ġholid":3899,"ielt":3900,"zustellen":3901,"Ġsea":3902,"ĠAg":3903,"Ġcontinu":3904,"gesehen":3905,"Ġenvironmental":3906,"Ġhandelt":3907,"Ġstrategy":3908,"Ġint":3909,"Ġmethod":3910,"arbeiten":3911,"unkte":3912,"ĠAussprache":3913,"ĠJahrhunder":3914,"verkehr":3915,"Ġversion":3916,"ients":3917,"eiter":3918,"aler":3919,"Ġzusatz":3920,"Ġindustr":3921,"istan":3922,"rieg":3923,"uelle":3924,"fur":3925,"Ġcla":3926,"Ġverbess":3927,"Ġstandards":3928,"ĠVerbraucher":3929,"OS":3930,"ĠKolleg":3931,"ban":3932,"ĠTV":3933,"leben":3934,"Ġnatural":3935,"ĠAngeb":3936,"Ġroad":3937,"itive":3938,"Ġprinciple":3939,"ÑĤ":3940,"Ġweiterhin":3941,"staat":3942,"verstand":3943,"Ġsend":3944,"ziehen":3945,"unachst":3946,"Ġtable":3947,"Ġrad":3948,"ĠSud":3949,"Ġverste":3950,"ĠVol":3951,"unehmen":3952,"ĠII":3953,"Ġtalk":3954,"Ġ2004":3955,"Ġmiss":3956,"ĠschlieÃŁ":3957,"Ġarr":3958,"Ġwords":3959,"eutet":3960,"Ġbetrifft":3961,"hib":3962,"ĠheiÃŁ":3963,"ĠEbene":3964,"ette":3965,"ĠPat":3966,"frast":3967,"cher":3968,"Ġincreasing":3969,"Ġinstitution":3970,"Ġrequired":3971,"ha":3972,"uell":3973,"ĠMo":3974,"After":3975,"rue":3976,"esten":3977,"Ġerkl":3978,"erst":3979,"ĠSitz":3980,"Ġreserv":3981,"Ġcentral":3982,"ĠGroÃŁ":3983,"Fin":3984,"cal":3985,"ex":3986,"Ġviews":3987,"unities":3988,"ĠFortsch":3989,"ĠNo":3990,"ser":3991,"Ġsignificant":3992,"ĠPriv":3993,"ones":3994,"Ġhouse":3995,"zeichnet":3996,"ided":3997,"ĠSpra":3998,"Ġmanufact":3999,"term":4000,"Ġwenig":4001,"wach":4002,"igent":4003,"Ġmoment":4004,"Ġsei":4005,"ĠThis":4006,"ĠFruh":4007,"useum":4008,"ished":4009,"Ġbedeutet":4010,"Ġtraining":4011,"Ġdeutlich":4012,"Ġclearly":4013,"stoff":4014,"Ġbenot":4015,"Ġmax":4016,"Unsere":4017,"ma":4018,"vo":4019,"Ġur":4020,"Ġauthorities":4021,"Ġdeshalb":4022,"haltung":4023,"Ġmeeting":4024,"Ġsolche":4025,"Ġmusic":4026,"Ġquick":4027,"Ġinfl":4028,"ask":4029,"Ġdon":4030,"asent":4031,"atal":4032,"Ġbesten":4033,"iqu":4034,"ĠAbstimmung":4035,"tlich":4036,"ube":4037,"ringen":4038,"ispielsweise":4039,"fil":4040,"icro":4041,"Ġrecent":4042,"Ġrelax":4043,"Ġinteress":4044,"ellen":4045,"Ġuser":4046,"ingen":4047,"AD":4048,"Ġdemand":4049,"60":4050,"ĠLeist":4051,"Ġaufgrund":4052,"ira":4053,"Ġpub":4054,"US":4055,"atis":4056,"Ġnetwork":4057,"ritten":4058,"yle":4059,"Ġcapital":4060,"Ġlearn":4061,"offentlich":4062,"Ġbreakfast":4063,"iting":4064,"Ġlar":4065,"ĠTre":4066,"ĠBem":4067,"auss":4068,"ĠWar":4069,"Ġachieve":4070,"mals":4071,"ĠVertra":4072,"ĠSal":4073,"ĠFar":4074,"kampf":4075,"ziehungen":4076,"Ġnutzen":4077,"Ġaspect":4078,"unch":4079,"Ġnight":4080,"Ġwichtige":4081,"aging":4082,"genda":4083,"Ġsour":4084,"Ġshare":4085,"ĠNor":4086,"ativ":4087,"unds":4088,"Ġtechnical":4089,"ĠGesetz":4090,"cent":4091,"pril":4092,"Ġfish":4093,"Ġextra":4094,"ĠGesellschaft":4095,"anze":4096,"Ġoft":4097,"spl":4098,"AP":4099,"Ġdistrib":4100,"gesetzt":4101,"Ġpages":4102,"anner":4103,"ding":4104,"Ġvia":4105,"Ġaccording":4106,"Ġprec":4107,"bereit":4108,"heb":4109,"ugend":4110,"Ġfundamental":4111,"Ġclean":4112,"Ġnature":4113,"ĠChrist":4114,"Ġtem":4115,"horden":4116,"Ġappear":4117,"Ġinternal":4118,"ork":4119,"ĠOb":4120,"Ad":4121,"change":4122,"ĠDok":4123,"Ġlonger":4124,"gelegt":4125,"ĠNahe":4126,"Ġmonths":4127,"Ġdirectly":4128,"ĠNovember":4129,"ĠKlima":4130,"eg":4131,"Ġfacilities":4132,"Ġside":4133,"Ġfindet":4134,"Ġthough":4135,"omfort":4136,"zuglich":4137,"folgen":4138,"Ġnachsten":4139,"jen":4140,"Ġverein":4141,"Ġemployment":4142,"Ġproposed":4143,"Ġenough":4144,"Ġobl":4145,"acy":4146,"Ġsolutions":4147,"ĠHoch":4148,"heim":4149,"Ġresponsible":4150,"ĠMenschenrechte":4151,"elves":4152,"ĠBevolk":4153,"ele":4154,"Ġern":4155,"Ġgewahrle":4156,"Ð½":4157,"ĠMitarbeit":4158,"ging":4159,"Ar":4160,"Ġcultural":4161,"ĠAnsicht":4162,"Dieser":4163,"IC":4164,"Ġhistory":4165,"Ġunver":4166,"ĠIde":4167,"ĠUmsetzung":4168,"Ġvorgesch":4169,"ane":4170,"Ġerne":4171,"Ġinterests":4172,"gency":4173,"Ġsubs":4174,"Ġguests":4175,"Ġrequirements":4176,"Ġtest":4177,"ĠRichtung":4178,"ĠBetrie":4179,"ĠBro":4180,"ĠHerren":4181,"Ġlange":4182,"Ġcharacter":4183,"orted":4184,"Ġcurrently":4185,"13":4186,"Ġprevent":4187,"ĠDemokratie":4188,"Ġbetre":4189,"horen":4190,"Ġcivil":4191,"Ġvier":4192,"frist":4193,"Ġregions":4194,"ĠIndustrie":4195,"ĠDesign":4196,"umente":4197,"Ġevents":4198,"ither":4199,"ffe":4200,"Ġassist":4201,"ables":4202,"Ġterror":4203,"rench":4204,"ĠBau":4205,"One":4206,"istischen":4207,"Ġheraus":4208,"Ġmount":4209,"Ġvol":4210,"Ġthems":4211,"Ġ23":4212,"Ġallerdings":4213,"Ġsele":4214,"Ġinvolved":4215,"Ġthemselves":4216,"Ġsustain":4217,"Ġ000":4218,"Ġparties":4219,"fordert":4220,"Ġsy":4221,"Ġapply":4222,"Ġfa":4223,"Ġilleg":4224,"erous":4225,"Ge":4226,"bank":4227,"Ġweb":4228,"ĠVerantwortung":4229,"schn":4230,"ĠIra":4231,"ĠPf":4232,"Ġrecogn":4233,"atic":4234,"Ġneeded":4235,"wirkungen":4236,"15":4237,"Ġzie":4238,"dert":4239,"ublik":4240,"Ġcompetition":4241,"Ġlive":4242,"fluss":4243,"esented":4244,"Ġpers":4245,"ĠBedingungen":4246,"Ġhappen":4247,"cies":4248,"ĠJapan":4249,"ood":4250,"Ġforeign":4251,"Ġhoffe":4252,"ĠApril":4253,"ĠInsel":4254,"Ġvoted":4255,"ĠWindows":4256,"lies":4257,"Ġextremely":4258,"teile":4259,"Ġgegeben":4260,"ĠWachst":4261,"Ġforce":4262,"Ġmark":4263,"aper":4264,"Ġgemeinsamen":4265,"Ġimplementation":4266,"folgt":4267,"ĠStruktur":4268,"val":4269,"Ġrequest":4270,"Ġnotwendig":4271,"ari":4272,"mbH":4273,"Ġdemocracy":4274,"Ġstation":4275,"Ġcentury":4276,"richtung":4277,"ĠDruck":4278,"ĠWert":4279,"elbst":4280,"Ġverf":4281,"Ġefforts":4282,"ĠAkt":4283,"estern":4284,"Ġbeispielsweise":4285,"ĠGebiet":4286,"Ġguarantee":4287,"Ġcamp":4288,"Ġupon":4289,"Ġfight":4290,"ĠCas":4291,"ĠweiÃŁ":4292,"onn":4293,"ump":4294,"ĠBesuch":4295,"chs":4296,"ommod":4297,"ĠBenutz":4298,"Ġlanguage":4299,"Ġdisk":4300,"Ġjeweil":4301,"Ġitem":4302,"ĠChar":4303,"grif":4304,"ired":4305,"ĠZiele":4306,"ĠBrit":4307,"ano":4308,"ienen":4309,"has":4310,"Ġago":4311,"Ġgehort":4312,"ynam":4313,"Ġdank":4314,"Ġbedeut":4315,"enken":4316,"ĠAG":4317,"ĠInteresse":4318,"linien":4319,"Ġchanges":4320,"dam":4321,"obile":4322,"mut":4323,"Ġkleinen":4324,"Ġqual":4325,"ĠVorschlage":4326,"Ġvielleicht":4327,"Ġprep":4328,"Ġcaus":4329,"ĠNord":4330,"Ġsozialen":4331,"ĠAnwendung":4332,"lied":4333,"inzip":4334,"Ġ)":4335,"Ġwohl":4336,"Ġbil":4337,"Ch":4338,"Ex":4339,"schlag":4340,"Ġcharge":4341,"Ġsepar":4342,"ĠGmbH":4343,"Ġcirc":4344,"Ġlow":4345,"Ġerziel":4346,"Ġexpect":4347,"Ġdemokrat":4348,"Ġenthalten":4349,"Ġverwendet":4350,"Ġdeveloped":4351,"ĠGrundlage":4352,"Ġplease":4353,"Ġcontain":4354,"Ġwind":4355,"atory":4356,"ĠStat":4357,"Ġermoglich":4358,"ĠFehl":4359,"Ġ2003":4360,"Ġsprechen":4361,"ĠParte":4362,"ĠCo":4363,"Ġfunf":4364,"vert":4365,"ĠEinsatz":4366,"ĠTages":4367,"ĠIhrem":4368,"Ġbevor":4369,"Ġfarm":4370,"Ġregulation":4371,"ĠWort":4372,"amous":4373,"ims":4374,"ĠPlatz":4375,"Ġcorre":4376,"ĠMa":4377,"jekte":4378,"wurd":4379,"Ġprotect":4380,"-,":4381,"istration":4382,"Ġsoon":4383,"Ġlot":4384,"onstr":4385,"ĠErfolg":4386,"ĠTats":4387,"ĠCar":4388,"ĠReihe":4389,"Ġerreicht":4390,"Ġneu":4391,"best":4392,"deut":4393,"Ġcomfortable":4394,"langen":4395,"spruch":4396,"TO":4397,"Ġcases":4398,"ense":4399,"Ġmess":4400,"ĠJun":4401,"tended":4402,"ama":4403,"andid":4404,"Ġverst":4405,"Ġpool":4406,"Ġnegotiations":4407,"Ġ22":4408,"ĠGeschichte":4409,"ips":4410,"Ġliegen":4411,"Ġwerde":4412,"ĠParis":4413,"ĠVerfahren":4414,"ĠMusik":4415,"Ġberucksicht":4416,"immungen":4417,"Ġsituated":4418,"crib":4419,"Ġcomes":4420,"Ġhalten":4421,"merksam":4422,"Ġtarge":4423,"Ġeither":4424,"teilt":4425,"Ġmarkets":4426,"auber":4427,"ĠMoglichkeiten":4428,"Ġprevious":4429,"teilen":4430,"Ġ197":4431,"Ġoptim":4432,"ĠSoc":4433,"Ġstor":4434,"Ġregional":4435,"Ġrestaurant":4436,"Ġeinges":4437,"lad":4438,"ĠKrit":4439,"ĠHa":4440,"ĠKons":4441,"ĠFrieden":4442,"Ġdeveloping":4443,"ĠDate":4444,"zentr":4445,"ĠDebatte":4446,"ipped":4447,"RO":4448,"stehen":4449,"abel":4450,"zel":4451,"TM":4452,"Ġmaintain":4453,"ĠHeraus":4454,"orge":4455,"int":4456,"abilitat":4457,"ĠDamen":4458,"inner":4459,"ini":4460,"ĠNetz":4461,"stall":4462,"Ġubern":4463,"ĠOl":4464,"Ġeverything":4465,"Ġindic":4466,"lef":4467,"rechts":4468,"ĠStre":4469,"auen":4470,"Ġcreated":4471,"ĠBil":4472,"zeigt":4473,"Ġausgest":4474,"ĠCour":4475,"ĠRestaurant":4476,"ĠAuÃŁen":4477,"Ġfinal":4478,"ĠWh":4479,"Ġsurround":4480,"Ġverg":4481,"attet":4482,"Ġhos":4483,"aders":4484,"ĠBlick":4485,"ĠGleich":4486,"itionen":4487,"istet":4488,"ĠSol":4489,"rieben":4490,"Ġamb":4491,"Ġarbeiten":4492,"Ġunique":4493,"Ġimprove":4494,"Ġmer":4495,"Ġstates":4496,"hend":4497,"ĠEntscheidung":4498,"ara":4499,"ĠAug":4500,"ĠPresidency":4501,"Vor":4502,"erseits":4503,"ĠHinblick":4504,"ĠPer":4505,"Ġlater":4506,"Frau":4507,"Ġverschiedene":4508,"Ġvorgeschlagen":4509,"orf":4510,"laden":4511,"Ġprices":4512,"ĠCont":4513,"date":4514,"ĠErweit":4515,"Ġberu":4516,"Te":4517,"Ġeducation":4518,"Ġfall":4519,"Ġimmed":4520,"Ġschwier":4521,"Ġaccommod":4522,"arbeitung":4523,"Ġque":4524,"Ġpict":4525,"ĠProt":4526,"Ob":4527,"oper":4528,"unik":4529,"ĠVerwalt":4530,"iable":4531,"geln":4532,"wegen":4533,"IP":4534,"Ġtrue":4535,"Ġauss":4536,"Ġadditional":4537,"ĠâĤ¬":4538,"Ġ60":4539,"Ġverfugt":4540,"ĠSchwe":4541,"Ġaltern":4542,"Ġalmost":4543,"ĠIr":4544,"haps":4545,"Ġbleiben":4546,"Ġincluded":4547,"Ġdemocratic":4548,"ulate":4549,"Ġmonitor":4550,"Ġgemeinsame":4551,"ĠAusdruck":4552,"ĠSteuer":4553,"ipment":4554,"eless":4555,"Ġliving":4556,"Ġthus":4557,"ĠEur":4558,"ĠFrance":4559,"Ġfort":4560,"Ġcut":4561,"Ġanalys":4562,"chnik":4563,"bahn":4564,"ĠMot":4565,"prise":4566,"ĠAktiv":4567,"Durch":4568,"igte":4569,"Ġermoglicht":4570,"Ġactually":4571,"ĠMay":4572,"Ġcontract":4573,"ommer":4574,"ĠMinuten":4575,"ĠErklar":4576,"trie":4577,"anten":4578,"Ġclimate":4579,"ĠRussia":4580,"ichen":4581,"Ġidea":4582,"ÑĢ":4583,"idd":4584,"ĠSouth":4585,"ĠInstitutionen":4586,"yer":4587,"Ġseen":4588,"haft":4589,"pendent":4590,"ĠAuswirkungen":4591,"las":4592,"Ġdocument":4593,"Ġtravel":4594,"ĠMont":4595,"ĠEinw":4596,"lant":4597,"ĠFrench":4598,"ĠDiskuss":4599,"ĠArbeitspl":4600,"Ġwide":4601,"ielle":4602,"vin":4603,"sichtlich":4604,"ental":4605,"ĠKraft":4606,"bark":4607,"ĠWieder":4608,"zent":4609,"Ġjoin":4610,"lack":4611,"Ġencour":4612,"uste":4613,"Ġprogram":4614,"Ġlack":4615,"Ñģ":4616,"ires":4617,"Ġakzept":4618,"Ġfile":4619,"Ġreceive":4620,"atsachlich":4621,"Ġvollstand":4622,"jenigen":4623,"Ġhold":4624,"mail":4625,"usst":4626,"Ġknowledge":4627,"Europ":4628,"ams":4629,"ĠProzess":4630,"ilar":4631,"ĠAff":4632,"ĠâĢĺ":4633,"Ġtype":4634,"Ġmat":4635,"ĠInform":4636,"hoh":4637,"ĠRechn":4638,"Ġdialog":4639,"Ġzeigt":4640,"Ġappropriate":4641,"ĠStrategie":4642,"ĠViel":4643,"Ġerforderlich":4644,"Ġfunds":4645,"Ġfuhrt":4646,"ester":4647,"ĠStaats":4648,"Ġwirtschaftlichen":4649,"Ġbisher":4650,"Ġschein":4651,"Ġofficial":4652,"Ġvill":4653,"Ġheld":4654,"bildung":4655,"frei":4656,"handlung":4657,"gegen":4658,"Ġprocedure":4659,"anzen":4660,"ĠSicherheits":4661,"ĠDienstleistungen":4662,"Ġeuro":4663,"ĠWissen":4664,"utter":4665,"ĠMod":4666,"Ġallgemein":4667,"iellen":4668,"Ġgesamten":4669,"ternal":4670,"Ġoutside":4671,"ĠLandes":4672,"Ġassoc":4673,"unf":4674,"iance":4675,"adurch":4676,"ĠRegionen":4677,"Sp":4678,"ĠLis":4679,"ĠIntegr":4680,"ĠEC":4681,"struction":4682,"lassen":4683,"ĠAbgeordneten":4684,"igur":4685,"Please":4686,"Ġthing":4687,"feld":4688,"Ġangeb":4689,"Ġdesigned":4690,"Ġschool":4691,"anced":4692,"Ġworkers":4693,"Ġpublish":4694,"Ġeinzelnen":4695,"Ġebenso":4696,"ĠErgebnis":4697,"Ġenthalt":4698,"Ġdarum":4699,"ying":4700,"Ġsuggest":4701,"Ġpropert":4702,"atisf":4703,"Daher":4704,"ĠSub":4705,"Ġrate":4706,"Ġfunktion":4707,"nehm":4708,"ĠWebs":4709,"eng":4710,"stead":4711,"Ġmajority":4712,"Ġfeatures":4713,"ush":4714,"ieÃŁen":4715,"ĠSport":4716,"Ġprofessional":4717,"Ġdanken":4718,"cure":4719,"Ġfamous":4720,"ĠVertre":4721,"cke":4722,"iews":4723,"18":4724,"Ġrelev":4725,"Ġhon":4726,"Von":4727,"Ġenl":4728,"Ġentwickelt":4729,"ĠKolleginnen":4730,"kra":4731,"clud":4732,"ondon":4733,"ibr":4734,"ĠDank":4735,"Ġthroughout":4736,"ET":4737,"ĠSchritt":4738,"Ġearly":4739,"otos":4740,"Ġcommunication":4741,"iens":4742,"ceed":4743,"Ġdraw":4744,"Ġdenke":4745,"Ġjud":4746,"Ġfive":4747,"Ġcop":4748,"Ġanswer":4749,"Ġlooking":4750,"cep":4751,"Ġangenommen":4752,"indest":4753,"ĠBinnen":4754,"ĠAnderungsantrag":4755,"Ġexclus":4756,"uÃŁerdem":4757,"mitteln":4758,"fragen":4759,"ausch":4760,"ox":4761,"isieren":4762,"oid":4763,"ĠTatsache":4764,"Off":4765,"rab":4766,"Ġimpact":4767,"Ġcustomer":4768,"ikt":4769,"ĠWohn":4770,"verfahren":4771,"Ġbehand":4772,"oder":4773,"lander":4774,"Ġemphas":4775,"ound":4776,"Ġhours":4777,"Ġspace":4778,"ĠHers":4779,"Ġtransl":4780,"Ġdownload":4781,"Ġtakes":4782,"bru":4783,"ufung":4784,"fahigkeit":4785,"ĠLuft":4786,"ipf":4787,"Ġdoing":4788,"AM":4789,"From":4790,"ĠArch":4791,"ĠFamilien":4792,"Ġworks":4793,"ĠPortug":4794,"Ġacross":4795,"Ġpotential":4796,"ĠFruhstuck":4797,"Ġwider":4798,"ĠDr":4799,"Ġstrengthen":4800,"ĠKir":4801,"va":4802,"ĠBereichen":4803,"ĠFunktion":4804,"Ġnormal":4805,"arbeitet":4806,"ĠAnderungsantrage":4807,"imme":4808,"Ġenable":4809,"Ġjedem":4810,"Ġinternationale":4811,"Ġconsequ":4812,"kampfung":4813,"AC":4814,"Ġcertainly":4815,"Ġlinks":4816,"Ġ27":4817,"Ġsuper":4818,"ĠVerhandlungen":4819,"Ġever":4820,"cer":4821,"Ġunivers":4822,"Ġdate":4823,"ĠMitglieder":4824,"orten":4825,"Ġparts":4826,"Ġproper":4827,"ĠRad":4828,"unt":4829,"Ġadopt":4830,"ĠGemeinschafts":4831,"ĠAmerican":4832,"Ġsolid":4833,"ĠPak":4834,"Ġgemeinsam":4835,"Ġaud":4836,"landern":4837,"Ġbefinden":4838,"fs":4839,"ĠKle":4840,"Ġcolleag":4841,"chte":4842,"ĠVereinigten":4843,"zif":4844,"ĠRis":4845,"Ġusers":4846,"Ġguest":4847,"asten":4848,"zer":4849,"Ġvorh":4850,"ĠWest":4851,"ĠBeg":4852,"kn":4853,"Ġsetzen":4854,"Ġdispla":4855,"ĠVersion":4856,"Ġtraditional":4857,"bel":4858,"Ġinvestment":4859,"ĠFuhr":4860,"ĠHandels":4861,"Ġgleichzeitig":4862,"Ġanzu":4863,"Ġtook":4864,"Ġneues":4865,"Ġmechan":4866,"Ġweiteren":4867,"ĠIran":4868,"Ġrecord":4869,"erei":4870,"ĠGeneral":4871,"ĠFund":4872,"ctors":4873,"Ġverd":4874,"alter":4875,"Ġoriginal":4876,"ĠAntwort":4877,"Ġdivers":4878,"ĠPosition":4879,"ĠBeziehungen":4880,"Ġresol":4881,"chsel":4882,"Ġumfassen":4883,"mat":4884,"Ġeth":4885,"Ġexisting":4886,"Ġconcerns":4887,"ĠDialog":4888,"igration":4889,"lam":4890,"Ġamount":4891,"Ġcomplex":4892,"range":4893,"Ġhinter":4894,"ullen":4895,"ĠZentrum":4896,"Ġprogrammes":4897,"ĠheiÃŁt":4898,"ka":4899,"Sh":4900,"ĠBevolkerung":4901,"Ġ2002":4902,"ĠKos":4903,"teid":4904,"Ġconnection":4905,"uted":4906,"ĠNorth":4907,"oking":4908,"ĠFuÃŁ":4909,"halte":4910,"Ġcross":4911,"Ġzuf":4912,"Ġsearch":4913,"Ġ80":4914,"zos":4915,"oms":4916,"Ġlat":4917,"ĠWerk":4918,"Ġarg":4919,"ball":4920,"Ġrelig":4921,"utt":4922,"ava":4923,"Ġmodel":4924,"ĠAugust":4925,"barkeit":4926,"ias":4927,"Ġmentioned":4928,"17":4929,"Zu":4930,"una":4931,"stre":4932,"ĠProf":4933,"Ġconcerning":4934,"setzen":4935,"aly":4936,"ĠInteressen":4937,"buch":4938,"system":4939,"fortun":4940,"Unser":4941,"Ġpopular":4942,"artet":4943,"ĠBurg":4944,"ĠLondon":4945,"ĠAbkommen":4946,"Ġalthough":4947,"ĠMor":4948,"Ġparliament":4949,"Ġjede":4950,"Ġwriting":4951,"Ġreasons":4952,"Ġhelfen":4953,"Ġneben":4954,"Ġlux":4955,"Ġabsolute":4956,"ille":4957,"Ġerf":4958,"ĠProgramme":4959,"Ġprim":4960,"Ġaktiv":4961,"richtungen":4962,"ĠCor":4963,"Ġdemonstr":4964,"Unter":4965,"ĠBeitrag":4966,"Ġdecisions":4967,"Ġcard":4968,"Ð¾Ð":4969,"SE":4970,"Ġleading":4971,"Book":4972,"face":4973,"Ġaware":4974,"Doch":4975,"Ġcompletely":4976,"ID":4977,"ĠCourt":4978,"aul":4979,"ĠEinzel":4980,"Ġlauf":4981,"Ġ2001":4982,"fallen":4983,"Ġbuilt":4984,"ĠTurkei":4985,"My":4986,"ĠDec":4987,"Ġgegenwart":4988,"Ġrelated":4989,"Ġnothing":4990,"Ġjoint":4991,"ĠHandel":4992,"Ġgame":4993,"Ġgelten":4994,"Ġbeit":4995,"Ġextens":4996,"Ġgestellt":4997,"ĠGovernment":4998,"Ġhalf":4999,"ĠVerpflicht":5000,"Ġcommunity":5001,"ĠKontrolle":5002,"ole":5003,"ED":5004,"griff":5005,"setzung":5006,"Ġrund":5007,"ĠAufgabe":5008,"temp":5009,"teller":5010,"Ġculture":5011,"Ġbasic":5012,"ĠWettbewerbs":5013,"Ġwichtigen":5014,"Ġintens":5015,"Ġconflic":5016,"ĠKop":5017,"tt":5018,"formen":5019,"Ġwarm":5020,"Ġfriendly":5021,"ĠNicht":5022,"Ġkleine":5023,"olz":5024,"Ġmeinen":5025,"ĠFlugh":5026,"Ġnahe":5027,"Gen":5028,"iddle":5029,"Ġunseres":5030,"Ġenlarge":5031,"Ġassess":5032,"amera":5033,"Ġcommittee":5034,"arity":5035,"ĠListe":5036,"Ġprakt":5037,"ĠBund":5038,"more":5039,"odell":5040,"des":5041,"esserung":5042,"Ġfront":5043,"Ġpractice":5044,"ological":5045,"mann":5046,"itable":5047,"ĠForschung":5048,"quis":5049,"Ġpopulation":5050,"Ġholiday":5051,"ĠAnt":5052,"apt":5053,"spe":5054,"onom":5055,"iterran":5056,"Ġmilitary":5057,"Ġagreements":5058,"grat":5059,"Ġincludes":5060,"Ġschwer":5061,"Ġdigital":5062,"ĠKampf":5063,"pass":5064,"Ġinternet":5065,"More":5066,"ĠTerror":5067,"Mail":5068,"ĠPC":5069,"emb":5070,"ĠHos":5071,"Ġmedia":5072,"Ġconsult":5073,"inden":5074,"ĠVerbindung":5075,"gangenen":5076,"Ġbecom":5077,"Ġgab":5078,"termin":5079,"ĠAmerica":5080,"statt":5081,"ĠCD":5082,"Ġallows":5083,"Ġgestimmt":5084,"aring":5085,"Ġaf":5086,"Ġoblig":5087,"ĠJust":5088,"ĠEnglish":5089,"nissen":5090,"Ġspezie":5091,"ills":5092,"ĠThemen":5093,"Ġerinn":5094,"bedingungen":5095,"Ġcommer":5096,"ume":5097,"14":5098,"urger":5099,"Ġjung":5100,"Ġjedes":5101,"ĠAusschusses":5102,"alien":5103,"Ġadvant":5104,"Ġobjectives":5105,"zunehmen":5106,"Ġ-,":5107,".,":5108,"wie":5109,"First":5110,"Seit":5111,"Ġbleibt":5112,"Ġconclus":5113,"Ġbody":5114,"ĠSchaff":5115,"ending":5116,"licken":5117,"zeugen":5118,"Ġchoice":5119,"Con":5120,"By":5121,"Ġbekommen":5122,"unschen":5123,"Ġerr":5124,"itness":5125,"istrat":5126,"andert":5127,"ih":5128,"Ġwa":5129,"Ġreceived":5130,"Ġwegen":5131,"len":5132,"Ġjobs":5133,"ĠTurkey":5134,"ĠHohe":5135,"pack":5136,"ovo":5137,"pression":5138,"Ġvalues":5139,"Ġemer":5140,"iated":5141,"ĠVerordnung":5142,"Ġtransfer":5143,"ason":5144,"Ġlos":5145,"amit":5146,"ya":5147,"ahren":5148,"Ġorigin":5149,"ĠFebru":5150,"ĠEntschlieÃŁung":5151,"annte":5152,"struments":5153,"vement":5154,"Ġfail":5155,"agn":5156,"Ġsatisf":5157,"Ġestablished":5158,"ĠOnline":5159,"ĠKonferenz":5160,"ĠReform":5161,"forderung":5162,"Ġ$":5163,"ĠSy":5164,"sitz":5165,"li":5166,"erve":5167,"Ġpoor":5168,"Ġbess":5169,"oo":5170,"Ġangem":5171,"Ġcomputer":5172,"Ġspr":5173,"ĠBarcel":5174,"Ġapplications":5175,"ĠInformations":5176,"kund":5177,"Ġequipment":5178,"Ġsimple":5179,"Ġsag":5180,"geschlossen":5181,"ĠHal":5182,"Ġrichtig":5183,"Ġregarding":5184,"Ġperformance":5185,"Mad":5186,"Ġverhin":5187,"Ġcapac":5188,"Bes":5189,"ĠStrand":5190,"ĠBehorden":5191,"ĠNutzung":5192,"Ġpackage":5193,"Ġmove":5194,"Ġcenter":5195,"Ġ1999":5196,"ikanischen":5197,"pite":5198,"Ġharmon":5199,"Ġcru":5200,"abon":5201,"Ġlok":5202,"Ġwunder":5203,"mbol":5204,"Ġcredit":5205,"Ġgerne":5206,"ĠLisbon":5207,"Ġwichtigsten":5208,"Ġattack":5209,"Do":5210,"ery":5211,"Ġerlaub":5212,"vious":5213,"Ġfiles":5214,"Ġiniti":5215,"Ġverantwort":5216,"pected":5217,"programm":5218,"mar":5219,"Ġagricultural":5220,"Ġpurch":5221,"osed":5222,"Ġunabhang":5223,"Ġimage":5224,"ĠAugen":5225,"Ġdurchge":5226,"Ġplann":5227,"uclear":5228,"Ġbroad":5229,"afe":5230,"Ġobjective":5231,"ĠVolks":5232,"ĠLiss":5233,"Ġquickly":5234,"ĠFern":5235,"fuhren":5236,"ennung":5237,"inne":5238,"icles":5239,"kraft":5240,"ĠMil":5241,"Ġattra":5242,"Pr":5243,"Ġmehrere":5244,"Ġred":5245,"ĠAnst":5246,"Ġhinsichtlich":5247,"ĠAufent":5248,"De":5249,"ummer":5250,"fahrt":5251,"ĠMann":5252,"Ġpleas":5253,"ipl":5254,"ĠKrise":5255,"Ġreports":5256,"Ġstop":5257,"seit":5258,"Ġface":5259,"ourn":5260,"16":5261,"Ġgoods":5262,"Ġkeyword":5263,"Ġsound":5264,"Ġbelow":5265,"Ġwonder":5266,"Ġfran":5267,"gesamt":5268,"ĠNotwend":5269,"ĠAffairs":5270,"imension":5271,"Ġganze":5272,"Ġganzen":5273,"ĠMitarbeiter":5274,"setz":5275,"ĠIS":5276,"Ġeinger":5277,"Ġindustrial":5278,"Ġnachhalt":5279,"ernen":5280,"Ġsun":5281,"Ġparty":5282,"wide":5283,"ĠAnfang":5284,"Ġwobei":5285,"ĠMun":5286,"Ġexperien":5287,"ĠLink":5288,"lla":5289,"Ġermoglichen":5290,"Ġsouth":5291,"Uber":5292,"Ġself":5293,"Ġdep":5294,"ĠReise":5295,"ĠGruppe":5296,"Ġleaders":5297,"ehen":5298,"Ġbenefit":5299,"Ġnote":5300,"ĠUrlaub":5301,"Ġtrotz":5302,"Ġtreatment":5303,"Ġhuge":5304,"Ġsense":5305,"rang":5306,"ĠLissabon":5307,"ĠErweiterung":5308,"aving":5309,"Ġachieved":5310,"ĠVerbesserung":5311,"ba":5312,"ĠWochen":5313,"AuÃŁerdem":5314,"dom":5315,"med":5316,"Ġcode":5317,"rechend":5318,"ĠMacht":5319,"ps":5320,"Ġseems":5321,"opping":5322,"fonds":5323,"Ġcontains":5324,"otion":5325,"Ġoption":5326,"mor":5327,"itect":5328,"griffen":5329,"entwick":5330,"Ġherr":5331,"Ġinitiative":5332,"Ġindeed":5333,"schlieÃŁend":5334,"einer":5335,"40":5336,"ĠAuswahl":5337,"rig":5338,"ĠBruss":5339,"Ġpassen":5340,"Ġgarant":5341,"iveness":5342,"ĠFach":5343,"erweise":5344,"Ġbeein":5345,"Ġrail":5346,"Ġzeigen":5347,"Ġleben":5348,"ĠBinnenmarkt":5349,"Ġrecently":5350,"moglichkeit":5351,"eden":5352,"hem":5353,"ĠVeranst":5354,"ĠOber":5355,"ania":5356,"Ġtag":5357,"troll":5358,"ĠPass":5359,"istische":5360,"ĠSchaffung":5361,"Ġill":5362,"ĠGelegenheit":5363,"erc":5364,"ĠWill":5365,"Let":5366,"Ġspac":5367,"ĠIT":5368,"Ġcorrect":5369,"Ġcarry":5370,"Ġengine":5371,"Ġvict":5372,"Ġveh":5373,"ĠDokument":5374,"ĠWachstum":5375,"Ġdouble":5376,"ĠFrankreich":5377,"RE":5378,"haupt":5379,"Ġtele":5380,"Ber":5381,"oppel":5382,"ĠEast":5383,"oz":5384,"Ġcongrat":5385,"VD":5386,"Ġbeginning":5387,"ering":5388,"ĠUkra":5389,"schw":5390,"nit":5391,"Ġlasst":5392,"ĠLux":5393,"arent":5394,"kennen":5395,"such":5396,"Ġdialogue":5397,"Since":5398,"itel":5399,"Ġhighly":5400,"serv":5401,"Ġruh":5402,"ĠSant":5403,"mehr":5404,"ienste":5405,"ĠBad":5406,"Ġseries":5407,"Ġlevels":5408,"umm":5409,"ape":5410,"verstandlich":5411,"ĠBre":5412,"Ġspielen":5413,"Ġoil":5414,"ĠFalle":5415,"ley":5416,"Ġfloor":5417,"Ġpresented":5418,"Ġefficient":5419,"wertungen":5420,"Zum":5421,"Ġvollig":5422,"Ġheut":5423,"ĠPrior":5424,"ĠWirk":5425,"Ġeveryone":5426,"ĠTransp":5427,"ĠHome":5428,"Ġnice":5429,"ĠCity":5430,"Ġscient":5431,"stances":5432,"Ġequipped":5433,"Ġgovernments":5434,"Ġsuccessful":5435,"OL":5436,"onse":5437,"ĠGree":5438,"stens":5439,"Ġgarden":5440,"ausschuss":5441,"umb":5442,"vorschriften":5443,"Ġactive":5444,"Ġintegration":5445,"Ġverbessern":5446,"Ġcomprom":5447,"Ġclick":5448,"....":5449,"ĠFlughafen":5450,"Ġ+":5451,"Ġgefahr":5452,"ranken":5453,"Madam":5454,"ĠNotwendigkeit":5455,"PE":5456,"fortunately":5457,"IM":5458,"Ġexchange":5459,"ĠVerwendung":5460,"Ġkonkre":5461,"Ġeinzig":5462,"Ġeig":5463,"Ġrein":5464,"ĠLauf":5465,"Ġkulture":5466,"Ġ!":5467,"Ġincreased":5468,"abor":5469,"Ġgrundlegen":5470,"organis":5471,"Ġcarried":5472,"Ġpain":5473,"rimin":5474,"ĠAngebot":5475,"ĠErgebnisse":5476,"Finally":5477,"arenz":5478,"hab":5479,"Ġwhose":5480,"irma":5481,"Ġspater":5482,"Ġfrei":5483,"isted":5484,"Ġstage":5485,"Ġconsumers":5486,"ĠGewalt":5487,"ĠClub":5488,"Ġage":5489,"kur":5490,"just":5491,"Ġtw":5492,"bl":5493,"Ġprinciples":5494,"ĠTage":5495,"Ġrat":5496,"ĠDan":5497,"Ġverfugen":5498,"ĠJune":5499,"ued":5500,"IL":5501,"Ġblock":5502,"ĠBarcelona":5503,"Ġagreed":5504,"ends":5505,"Ġhigher":5506,"Ġguten":5507,"atell":5508,"Ġsex":5509,"ĠKonig":5510,"ĠManagement":5511,"hren":5512,"Ġsoziale":5513,"Ġseek":5514,"izien":5515,"ĠAmster":5516,"Ġeigene":5517,"action":5518,"pose":5519,"Ġverwenden":5520,"iles":5521,"imming":5522,"sterreich":5523,"hoben":5524,"Ġsent":5525,"ĠWoche":5526,"ĠAnzahl":5527,"Ġhumanit":5528,"Ġdang":5529,"isc":5530,"ficient":5531,"ĠKern":5532,"Ġreviews":5533,"iko":5534,"sehen":5535,"Ġoffice":5536,"Ġhauf":5537,"Ġ500":5538,"Ġamendment":5539,"ĠApart":5540,"ĠBerg":5541,"Ġprofit":5542,"Ġbathroom":5543,"wise":5544,"Ġdirection":5545,"...\"":5546,"Ġmal":5547,"ĠMai":5548,"Ġasked":5549,"Ġkor":5550,"ĠZeitpunkt":5551,"kr":5552,"Ġsubsid":5553,"ĠServ":5554,"rid":5555,"loyment":5556,"Ġcoll":5557,"Ġexpl":5558,"Ġcommercial":5559,"Ġconfirm":5560,"Ġchoose":5561,"pflich":5562,"bie":5563,"Ġsupply":5564,"aschinen":5565,"25":5566,"Ġexc":5567,"Ġtraff":5568,"Ġcommitment":5569,"Ġsimilar":5570,"Ġmeinem":5571,"Ġsix":5572,"Ġdre":5573,"ĠMaterial":5574,"Ġregular":5575,"atast":5576,"usion":5577,"ĠMy":5578,"Ġpan":5579,"ĠTeam":5580,"Ġdiskut":5581,"Ġfehl":5582,"uffet":5583,"anischen":5584,"ĠLiefer":5585,"Ġperhaps":5586,"schuÃŁ":5587,"Ġtell":5588,"Ġkunft":5589,"ĠGra":5590,"xis":5591,"Ġgesamte":5592,"ĠZe":5593,"Ġandern":5594,"Ġzunachst":5595,"ourcen":5596,"minister":5597,"ĠLosungen":5598,"Ġshows":5599,"mitt":5600,"ĠChin":5601,"cript":5602,"Ġrates":5603,"Ġinfluen":5604,"Ġmatters":5605,"Ġgehoren":5606,"Ġaspects":5607,"Ġavoid":5608,"Ġnews":5609,"iglich":5610,"Ġstress":5611,"Ġshown":5612,"Ġadded":5613,"gn":5614,"mosphere":5615,"pid":5616,"ĠImm":5617,"ĠJugend":5618,"otes":5619,"Ġerg":5620,"Ġgleichen":5621,"polit":5622,"ĠGefahr":5623,"klus":5624,"ĠSocial":5625,"Ġnuclear":5626,"ingt":5627,"Ġinnovative":5628,"Ġ28":5629,"ico":5630,"hes":5631,"Ġformer":5632,"Ġpromote":5633,"Ġdynam":5634,"ĠYou":5635,"Ġbi":5636,"ĠMiss":5637,"Ġtatsachlich":5638,"Ġconsidered":5639,"Ġcame":5640,"Ġvorhanden":5641,"Ġthanks":5642,"Ġgeschaf":5643,"inger":5644,"Ġhotels":5645,"greifen":5646,"ees":5647,"irit":5648,"Ġspeed":5649,"Ġgelegen":5650,"eff":5651,"Ġobtain":5652,"ĠSchaden":5653,"ehr":5654,"Wahr":5655,"Ġsorgen":5656,"atzen":5657,"ĠHigh":5658,"Ġeffects":5659,"rec":5660,"akter":5661,"Ġlik":5662,"cret":5663,"ĠTod":5664,"ĠKrieg":5665,"artige":5666,"ĠCentral":5667,"Ġlatest":5668,"Ġpossibility":5669,"Ġopportunities":5670,"ĠKl":5671,"Ġeindeut":5672,"Ġgefuhrt":5673,"ĠStandard":5674,"ously":5675,"ĠJuni":5676,"ĠHerzen":5677,"ĠauÃŁerst":5678,"Ġmaterials":5679,"will":5680,"astic":5681,"ierenden":5682,"ĠInitiative":5683,"ĠDez":5684,"ored":5685,"fangen":5686,"owers":5687,"ĠMehrheit":5688,"ĠBud":5689,"Ġbehind":5690,"zub":5691,"Ġdepend":5692,"icherung":5693,"son":5694,"24":5695,"Ġubr":5696,"ĠBalk":5697,"ĠDu":5698,"alu":5699,"where":5700,"Ġcondition":5701,"ology":5702,"ĠYork":5703,"Ġentwickeln":5704,"Ġernst":5705,"este":5706,"ĠStellung":5707,"Ġsofort":5708,"Ġcreation":5709,"icy":5710,"ĠHam":5711,"Here":5712,"Ġfal":5713,"ĠWein":5714,"Ġatmosphere":5715,"Denn":5716,"Ġdraft":5717,"roh":5718,"okoll":5719,"ĠAnderungen":5720,"Ġphys":5721,"ĠErfahrung":5722,"ĠRepublic":5723,"Ġresponse":5724,"Ġsetting":5725,"Ġreached":5726,"ĠSolid":5727,"Ġproviding":5728,"ĠSee":5729,"itting":5730,"Ro":5731,"leb":5732,"ĠgroÃŁten":5733,"Ġreview":5734,"Ġeasily":5735,"ĠRegierungen":5736,"ĠPersonal":5737,"Ġaccommodation":5738,"Ġverstehen":5739,"Ġexternal":5740,"ĠPost":5741,"gene":5742,"ĠNieder":5743,"Wer":5744,"Ġkomplet":5745,"Ġleicht":5746,"Thank":5747,"Ġsummer":5748,"ĠLeg":5749,"Ġprepared":5750,"cle":5751,"Ġrelevant":5752,"Ġdeath":5753,"uel":5754,"ĠProgram":5755,"iction":5756,"zeugt":5757,"Ġhohen":5758,"Ġreduce":5759,"Ġcriter":5760,"Ġsize":5761,"ĠEinfuhrung":5762,"yd":5763,"99":5764,"Is":5765,"arily":5766,"ĠRussland":5767,"aude":5768,"No":5769,"idel":5770,"ĠLes":5771,"Ġsomit":5772,"Ġ90":5773,"Ġexhib":5774,"ĠLeit":5775,"ĠEigen":5776,"Ġdeta":5777,"Ġgewahrleisten":5778,"Ġschle":5779,"Ġdring":5780,"Ġsustainable":5781,"heben":5782,"Ġvideo":5783,"Ġlediglich":5784,"Ġprepar":5785,"Ġpressure":5786,"kommens":5787,"war":5788,"Ġdecided":5789,"ĠOrganisation":5790,"ĠInnov":5791,"anderung":5792,"Ġgeschlossen":5793,"prung":5794,"ĠRel":5795,"ĠGlobal":5796,"ĠFolgen":5797,"ĠMac":5798,"istics":5799,"ierter":5800,"Ġverpflich":5801,"Ġten":5802,"ĠRatsprasident":5803,"Ġcondu":5804,"ĠVerkehrs":5805,"quare":5806,"Ġelekt":5807,"Ġcapacity":5808,"sc":5809,"Ġgebracht":5810,"Daruber":5811,"ney":5812,"ĠUmgebung":5813,"ĠPan":5814,"ki":5815,"ais":5816,"ĠStabilitat":5817,"Ġterra":5818,"ĠKonfl":5819,"ĠArg":5820,"Ġcoming":5821,"Ġbeteil":5822,"Ġtragen":5823,"ĠConvention":5824,"Ġprob":5825,"put":5826,"ounts":5827,"Ġsubmitted":5828,"Ġerfolgreich":5829,"Ġactions":5830,"Ġstyle":5831,"ibilities":5832,"ĠSpain":5833,"ĠGolf":5834,"Ġdetails":5835,"ĠBra":5836,"Ġlay":5837,"Ġgives":5838,"Ġwirtschaftliche":5839,"schnitt":5840,"Ġplaces":5841,"ĠMag":5842,"Ġanderer":5843,"uern":5844,"ych":5845,"ĠMadam":5846,"Ġerk":5847,"ĠKar":5848,"cks":5849,"Ġneigh":5850,"Ġconcept":5851,"ĠKauf":5852,"ĠAmsterdam":5853,"ĠRot":5854,"creen":5855,"Ġ70":5856,"Ġisland":5857,"Ġhervorragen":5858,"Ġremains":5859,"Ġsites":5860,"aup":5861,"Ġ196":5862,"ĠVereinbar":5863,"Ġarchitect":5864,"volle":5865,"adem":5866,"irmen":5867,"Ġerwahn":5868,"aft":5869,"iately":5870,"Ġproperty":5871,"ĠSprache":5872,"Ġvern":5873,"rief":5874,"ĠZu":5875,"ĠFamilie":5876,"ĠBusiness":5877,"Ġenlargement":5878,"ĠStandpunkt":5879,"Ġcause":5880,"Ġbestimmte":5881,"Ġsuffer":5882,"Ġclosed":5883,"ĠLat":5884,"ilos":5885,"maÃŁnahmen":5886,"resp":5887,"Ġpriority":5888,"rehens":5889,"ĠErach":5890,"PL":5891,"Ġut":5892,"roat":5893,"industrie":5894,"ĠVertrags":5895,"ĠErachtens":5896,"Ġerschein":5897,"Ġmeines":5898,"Ġausgestattet":5899,"Damit":5900,"Ġahn":5901,"itzen":5902,"zeuge":5903,"ĠKomprom":5904,"Ġzweite":5905,"ĠSicht":5906,"ĠKommunik":5907,"ĠUnterk":5908,"Ġhor":5909,"ulgar":5910,"losen":5911,"ĠAgr":5912,"Some":5913,"23":5914,"ĠItaly":5915,"Ġbalance":5916,"ĠTransport":5917,"Ġleave":5918,"tent":5919,"Ġamer":5920,"ĠNet":5921,"Ġ300":5922,"unk":5923,"Ġvorliegen":5924,"Ġrepla":5925,"ĠBekampfung":5926,"Now":5927,"terne":5928,"ĠLog":5929,"Ġannoun":5930,"Ġtrain":5931,"Ġbestimmten":5932,"Ġ=":5933,"emin":5934,"ĠDinge":5935,"Ġbillion":5936,"ĠKommissarin":5937,"Therefore":5938,"Ġzahlreiche":5939,"ĠAud":5940,"iency":5941,"ĠKur":5942,"Ġfunding":5943,"Ġregister":5944,"Ġpartner":5945,"ĠAmend":5946,"Ġune":5947,"Ġobwohl":5948,"Ġconsumer":5949,"Ġdescrib":5950,"Ġdecl":5951,"Ġlimited":5952,"ĠFerien":5953,"Ġvorgesehen":5954,"Further":5955,"ĠOct":5956,"ĠAspe":5957,"ĠParty":5958,"Ġassistance":5959,"ieg":5960,"chts":5961,"lav":5962,"ĠProduktion":5963,"Ġmovement":5964,"ĠWTO":5965,"ĠDebian":5966,"Ġstarken":5967,"ĠDecember":5968,"elten":5969,"ena":5970,"Ġerhalt":5971,"ĠFreiheit":5972,"ato":5973,"Ġforms":5974,"ero":5975,"Natur":5976,"maÃŁig":5977,"Ġneuer":5978,"stellt":5979,"ĠAlt":5980,"atastrop":5981,"die":5982,"Ġdiscover":5983,"ĠGrunde":5984,"ĠWettbewerb":5985,"ĠKosovo":5986,"Ġelse":5987,"ugs":5988,"UR":5989,"legenheiten":5990,"ĠAfrica":5991,"iterranean":5992,"velopment":5993,"ĠTo":5994,"ĠFilm":5995,"ategories":5996,"ĠMarket":5997,"Ġscheint":5998,"Ġsport":5999,"Ġtransparen":6000,"Ġwoll":6001,"ĠGast":6002,"anderungen":6003,"Ġsupported":6004,"selves":6005,"ĠMich":6006,"uert":6007,"ĠChe":6008,"Ġhighl":6009,"itzer":6010,"ĠHinter":6011,"ĠCol":6012,"Ġground":6013,"'.":6014,"zehn":6015,"ĠMuseum":6016,"ĠRess":6017,"ĠArticle":6018,"ĠUberein":6019,"Ġbrought":6020,"Ġsagte":6021,"ĠAktivitaten":6022,"Ġ26":6023,"Ġentde":6024,"ghan":6025,"Ġgreen":6026,"ĠEing":6027,"fordern":6028,"lichkeiten":6029,"ĠOkt":6030,"Ġregulations":6031,"ĠSelbst":6032,"gesellschaft":6033,"Ġnorth":6034,"ĠIntegration":6035,"angel":6036,"Ġindependent":6037,"ĠInstrument":6038,"Ġerweit":6039,"ĠauÃŁerdem":6040,"Ġallein":6041,"ĠFortschritte":6042,"uis":6043,"Ġgewor":6044,"Ġvirt":6045,"Ġfoot":6046,"Ġversuchen":6047,"ĠGed":6048,"stitute":6049,"Ġpros":6050,"Ġadministrat":6051,"Ġzahlen":6052,"ournal":6053,"ĠKontakt":6054,"resh":6055,"Ġult":6056,"ĠBritish":6057,"ĠFed":6058,"Ġquiet":6059,"ĠFehler":6060,"Ġbur":6061,"Ġeffe":6062,"ziehung":6063,"mission":6064,"prozess":6065,"Ġbestat":6066,"Ġsolchen":6067,"Ġcreating":6068,"etimes":6069,"wertung":6070,"geber":6071,"Ġrule":6072,"Ġwww":6073,"ĠUkraine":6074,"ĠDezember":6075,"ĠBestimmungen":6076,"asion":6077,"Fraktion":6078,"Ġpleased":6079,"Ġdadurch":6080,"ĠIN":6081,"Ġord":6082,"Ġlimit":6083,"Ġconstruction":6084,"Ġerster":6085,"bor":6086,"ĠgemaÃŁ":6087,"ĠRev":6088,"spro":6089,"Ġunterst":6090,"Ġx":6091,"Ġfig":6092,"Ġgefordert":6093,"Ġpurpose":6094,"ĠMedien":6095,"Ġrestaurants":6096,"lare":6097,"Ġvariety":6098,"endes":6099,"chter":6100,"Ġregel":6101,"Ġzweiten":6102,"ĠDar":6103,"ĠItalien":6104,"ugg":6105,"ĠStelle":6106,"Ġrepe":6107,"Ġlic":6108,"page":6109,"Ġhohe":6110,"ĠOffent":6111,"Ġanim":6112,"Ġfranzos":6113,"liz":6114,"Ġdiscussion":6115,"Ġapartment":6116,"Ġeinzige":6117,"Ġfriends":6118,"ĠMarch":6119,"ĠStunden":6120,"ĠRu":6121,"lemented":6122,"Ġmobile":6123,"ĠWohl":6124,"Ġprot":6125,"sicherheit":6126,"imately":6127,"legung":6128,"Ġfix":6129,"Ġalter":6130,"Ġinsgesamt":6131,"ĠJahrhundert":6132,"Ġexpla":6133,"merksamkeit":6134,"Ġmessage":6135,"aritat":6136,"ĠImp":6137,"Ġdeep":6138,"ilen":6139,"Ġexec":6140,"moglichkeiten":6141,"ĠWestern":6142,"Ġrenov":6143,"Ġbecame":6144,"Ġerheb":6145,"Ġaufgenommen":6146,"ĠInstall":6147,"Ġproduced":6148,"ategorien":6149,"Ġlargest":6150,"lefon":6151,"unternehmen":6152,"Ġchem":6153,"Ġinstead":6154,"Ġsus":6155,"Of":6156,"Ġwid":6157,"ĠItalian":6158,"isters":6159,"**":6160,"ĠOper":6161,"stag":6162,"ritts":6163,"Ġthous":6164,"Ġvergangenen":6165,"NG":6166,"kor":6167,"igungen":6168,"stellungen":6169,"usch":6170,"Ġrelationship":6171,"FR":6172,"ĠAufmerksamkeit":6173,"lines":6174,"resse":6175,"ĠPunkte":6176,"Ġhoher":6177,"ĠSil":6178,"ĠVis":6179,"Ġairport":6180,"Ġconference":6181,"Ġsud":6182,"ym":6183,"ĠMarz":6184,"Ġalten":6185,"reibung":6186,"Ġstudy":6187,"Ġstability":6188,"anlage":6189,"ĠMicro":6190,"Ġways":6191,"ĠZustand":6192,"ĠschlieÃŁlich":6193,"ĠCal":6194,"Ġobvious":6195,"Ġmor":6196,"ĠSchl":6197,"aw":6198,"Ġhost":6199,"Ġregards":6200,"Ġinteresting":6201,"ĠUnd":6202,"Ġaccord":6203,"Ġeffort":6204,"cement":6205,"bewertungen":6206,"Booking":6207,"ĠAf":6208,"Or":6209,"ronic":6210,"iete":6211,"Ġmeasure":6212,"yond":6213,"see":6214,"Ġboard":6215,"Ġexam":6216,"Ġsteps":6217,"ĠErklarung":6218,"Ġsafe":6219,"ĠeinschlieÃŁlich":6220,"Ġdetermin":6221,"ĠPreise":6222,"coming":6223,"Ġstarted":6224,"rafte":6225,"porate":6226,"Ġallowed":6227,"ĠEntscheidungen":6228,"conomic":6229,"Ġfishing":6230,"ĠStark":6231,"Ġprocedures":6232,"Ġactivity":6233,"Ġrich":6234,"ĠForschungs":6235,"zone":6236,"ĠBelg":6237,"ĠgenieÃŁen":6238,"Ġ1998":6239,"ĠAnsatz":6240,"ĠAnwend":6241,"ĠBu":6242,"Reg":6243,"ilitat":6244,"Ġtask":6245,"Ġmedium":6246,"Ġproduce":6247,"Wahrend":6248,"Ġaw":6249,"Ġvertreten":6250,"Ġhous":6251,"ĠOctober":6252,"Ġinstrument":6253,"Ġfisher":6254,"80":6255,"Ġdiv":6256,"ĠKuche":6257,"etary":6258,"Ġdisplay":6259,"Ġstatus":6260,"EP":6261,"rats":6262,"ĠVerkauf":6263,"Ġkonzentr":6264,"ĠBerichts":6265,"ĠCamp":6266,"ĠJanuary":6267,"Ġkeiner":6268,"Ġoperation":6269,"Ġaccep":6270,"ĠBenutzer":6271,"oker":6272,"altet":6273,"ĠAnforderungen":6274,"ĠKing":6275,"Ġpurs":6276,"Ġlegislative":6277,"ĠPrivat":6278,"ĠRights":6279,"Ġcompromise":6280,"Ġsource":6281,"Ġliberal":6282,"Ġmorgen":6283,"Ġcontribution":6284,"Ġmem":6285,"Ġprovisions":6286,"Ġdut":6287,"Ġdamage":6288,"overty":6289,"ĠBeschaftigung":6290,"ĠUnternehmens":6291,"ĠOktober":6292,"Ġrelation":6293,"Ġbeschaft":6294,"ĠGarten":6295,"itude":6296,"ĠInn":6297,"Ġbetroffen":6298,"Ġfilm":6299,"Ġexact":6300,"Ġrom":6301,"arz":6302,"soft":6303,"ĠCons":6304,"âĢľ,":6305,"ĠGastebewertungen":6306,"ĠSchweiz":6307,"ĠVorschriften":6308,"prechen":6309,"annen":6310,"ĠGesundheits":6311,"ĠBasis":6312,"ĠServer":6313,"Ġtat":6314,"cia":6315,"Ġwritten":6316,"zusch":6317,"Ġeigentlich":6318,"Ġsan":6319,"Ġinstruments":6320,"Ġsta":6321,"Bitte":6322,"ĠGal":6323,"Ġword":6324,"ĠAbend":6325,"ĠGruppen":6326,"Ġlabour":6327,"Ġpen":6328,"ĠZeich":6329,"Ġcompon":6330,"Ġvillage":6331,"Ġleisten":6332,"Ġerwarten":6333,"ĠBereiche":6334,"ĠGrenzen":6335,"ares":6336,"Ġausdruck":6337,"Ġappe":6338,"Ġunge":6339,"Ġhaufig":6340,"itial":6341,"enntnis":6342,"ĠOffentlichkeit":6343,"ja":6344,"Ġeleg":6345,"ST":6346,"Tod":6347,"ĠErzeug":6348,"Ġgiving":6349,"EM":6350,"Ġeingesetzt":6351,"--":6352,"ford":6353,"Ġdistance":6354,"bus":6355,"uhungen":6356,"kosten":6357,"Ġkit":6358,"besch":6359,"gro":6360,"ĠDom":6361,"Ġleider":6362,"Ġourselves":6363,"ĠBundes":6364,"Ġstra":6365,".)":6366,"ivity":6367,"ienten":6368,"Ġgain":6369,"ĠLandwirtschaft":6370,"Ġcriteria":6371,"Ġgot":6372,"ĠGipf":6373,"Ġhistorical":6374,"Ġloss":6375,"ĠArbeitnehmer":6376,"ĠTer":6377,"ifik":6378,"ilfen":6379,"Ġconven":6380,"Ġminor":6381,"Ġprefer":6382,"lose":6383,"ĠZust":6384,"Ġwenige":6385,"ĠPap":6386,"nungs":6387,"Ġdocuments":6388,"wesen":6389,"ĠPrasidenten":6390,"works":6391,"Ġgenommen":6392,"ĠWider":6393,"Ġgeworden":6394,"lekt":6395,"Ġklein":6396,"Ġdurchgefuhrt":6397,"ĠNationen":6398,"Office":6399,"Ġevalu":6400,"ateral":6401,"Ġstatement":6402,"Ġviolence":6403,"ĠTro":6404,"Ġdepart":6405,"ĠSystems":6406,"freund":6407,"Ġmountain":6408,"Ġdat":6409,"ĠTor":6410,"Ġverm":6411,"Ġcomprehens":6412,"ĠTransparenz":6413,"Ġfirm":6414,"enzen":6415,"ĠDiskussion":6416,"Ġgenug":6417,"ĠSpanish":6418,"no":6419,"Ġwon":6420,"Ġdise":6421,"Ġlaunch":6422,"Ġbase":6423,"ĠDon":6424,"glied":6425,"ĠDi":6426,"offnet":6427,"Ġstructure":6428,"Ġfinally":6429,"ground":6430,"ĠSite":6431,"ĠMart":6432,"Ġbenefits":6433,"struct":6434,"ĠKan":6435,"Ġgran":6436,"Ġpal":6437,"Ġberuhm":6438,"Ġzentr":6439,"Ġfell":6440,"Ġtypes":6441,"dienst":6442,"orgt":6443,"teuer":6444,"Ġunmittel":6445,"ĠPrinzip":6446,"ĠEre":6447,"Ġbenotigen":6448,"ĠEm":6449,"ĠOrgan":6450,"Ġvorge":6451,"Ġnied":6452,"ĠSinne":6453,"Ġbrit":6454,"wortern":6455,"Ġurs":6456,"park":6457,"ierende":6458,"Ġbelieb":6459,"ought":6460,"Ġpath":6461,"ocated":6462,"ĠJuli":6463,"ĠOst":6464,"OT":6465,"uls":6466,"Ġ29":6467,"terprise":6468,"bre":6469,"Ġimmediately":6470,"Ġsuchen":6471,"Ġelements":6472,"Second":6473,"Ġsection":6474,"ĠHar":6475,"Ġaktuellen":6476,"Ġworth":6477,"Ġedit":6478,"Ġconstant":6479,"ĠGrunden":6480,"Ġwest":6481,"wind":6482,"Ġwine":6483,"Ġhighest":6484,"Ġeuropaischer":6485,"Ġihres":6486,"ĠAuftrag":6487,"Ġdistribution":6488,"Ġgrat":6489,"ĠSommer":6490,"Ġangesichts":6491,"letzt":6492,"ĠBildung":6493,"bert":6494,"eks":6495,"Ġthreat":6496,"Ġobserv":6497,"Ġtransparency":6498,"ades":6499,"!!":6500,"Ġfreund":6501,"frastruct":6502,"ĠBilder":6503,"ĠGott":6504,"ĠJanuar":6505,"Ġhar":6506,"Ġwichtiger":6507,"zwe":6508,"Ġkannst":6509,"hotel":6510,"Ġjahr":6511,"cription":6512,"Ġlower":6513,"Ġperfe":6514,"ieht":6515,"leitet":6516,"ograf":6517,"Ġemployees":6518,"urance":6519,"ĠTex":6520,"Ġkennen":6521,"ĠFallen":6522,"orgung":6523,"ĠSchwier":6524,"Zur":6525,"ĠInvestitionen":6526,"ssen":6527,"ĠHung":6528,"Ġgefunden":6529,"mosphare":6530,"Ġstock":6531,"ĠGemeins":6532,"Ġintegrated":6533,"Ġgre":6534,"Ġweder":6535,"ĠEd":6536,"Ġuseful":6537,"house":6538,"Ġbezuglich":6539,"achs":6540,"Ġequal":6541,"Ġrene":6542,"rich":6543,"ĠMetho":6544,"ral":6545,"Ġursprung":6546,"Ġagenda":6547,"Ġnumerous":6548,"ĠAuffassung":6549,"head":6550,"Ġalternative":6551,"ĠVorsitz":6552,"fuhl":6553,"Ġcy":6554,"aign":6555,"Ġgeschaffen":6556,"Ġlate":6557,"idge":6558,"Ġreading":6559,"Ġaffect":6560,"ĠDemoc":6561,"Ġzeit":6562,"ĠRede":6563,"Ġapplied":6564,"ĠDevelopment":6565,"Ġselect":6566,"ĠFah":6567,"Ġgas":6568,"Ġzehn":6569,"Ġparking":6570,"Ġchallenges":6571,"Ġelections":6572,"ĠVorauss":6573,"Ġtur":6574,"erner":6575,"ĠJuly":6576,"ĠPortugal":6577,"ĠSache":6578,"Ġhalte":6579,"view":6580,"Ġreality":6581,"Ġdrive":6582,"ĠUntersuch":6583,"Ġhelpful":6584,"ichtlich":6585,"iker":6586,"ĠAufenthalt":6587,"Ġemb":6588,"offen":6589,"Ġsonst":6590,"ĠFirma":6591,"bezogen":6592,"ko":6593,"ĠNr":6594,"ĠProjekte":6595,"Ġconsist":6596,"orning":6597,"ĠServices":6598,"Ġcoast":6599,"anted":6600,"ĠSl":6601,"Ġapartments":6602,"ĠCentre":6603,"Wel":6604,"Ġstarker":6605,"Ġpoverty":6606,"Ġprocesses":6607,"back":6608,"zeichnung":6609,"Ġaccomp":6610,"ĠIraq":6611,"Ġpayment":6612,"ĠComputer":6613,"ĠUniversity":6614,"Ġround":6615,"Ġconsequences":6616,"Ġemiss":6617,"Ġdecor":6618,"Ġtools":6619,"Ġski":6620,"Ġunemp":6621,"legation":6622,"Ġeher":6623,"pen":6624,"Ġdaily":6625,"ĠLinux":6626,"front":6627,"ammlung":6628,"IA":6629,"arischen":6630,"entur":6631,"ĠPrasidentschaft":6632,"ĠAfghan":6633,"Ġteach":6634,"PS":6635,"ĠLebensmittel":6636,"Ġhom":6637,"Ġsaying":6638,"Ġerneut":6639,"Ġsieht":6640,"merk":6641,"phone":6642,"Ġoffering":6643,"ĠInnen":6644,"Ġattract":6645,"ĠbegruÃŁe":6646,"Ġcrucial":6647,"auch":6648,"Ġdiejenigen":6649,"Ġlost":6650,"Ġuberpr":6651,"Ġsolidarity":6652,"98":6653,"Ġtreffen":6654,"Ġtim":6655,"Ġsamt":6656,"Ġbringt":6657,"ye":6658,"Ġbad":6659,"gende":6660,"Ġgele":6661,"ĠKoh":6662,"Ġanalysis":6663,"ownload":6664,"Ġdrink":6665,"Ġbeyond":6666,"vors":6667,"Ġmut":6668,"Ġmis":6669,"Ġlegit":6670,"ilosoph":6671,"ĠRegeln":6672,"unen":6673,"richten":6674,"Ġentsprechenden":6675,"ita":6676,"Ġpie":6677,"Ġperman":6678,"Ġign":6679,"Ġbem":6680,"ĠEreign":6681,"izin":6682,"othe":6683,"ogle":6684,"Ġbeitragen":6685,"Ġphot":6686,"ĠWunsch":6687,"ĠStaat":6688,"Ġziehen":6689,"zahlt":6690,"Ġundert":6691,"Ġpersons":6692,"Ġpaid":6693,"Ġarm":6694,"ĠSchlusselwortern":6695,"Ġveroffentlich":6696,"ĠRepublik":6697,"folge":6698,"Ġwissenschaft":6699,"Ġplant":6700,"Today":6701,"Ġkrit":6702,"Ġvan":6703,"Ġoffentliche":6704,"Ġerfahren":6705,"Ġoffered":6706,"ĠBeteil":6707,"Ġconflict":6708,"ĠCO":6709,"Ġ1997":6710,"Ġcolleagues":6711,"gelt":6712,"Ġspirit":6713,"Ġban":6714,"Ġthought":6715,"raten":6716,"Ġgoes":6717,"ĠMobil":6718,"scheinlich":6719,"ione":6720,"ĠBahn":6721,"ĠEnts":6722,"ĠCost":6723,"Tra":6724,"ĠJava":6725,"Ġ35":6726,"Ġhinzu":6727,"Ġpractical":6728,"Ġillegal":6729,"ĠStraÃŁen":6730,"ĠStar":6731,"schlagen":6732,"Ġentsprechend":6733,"ĠDVD":6734,"Ġhappy":6735,"ĠZw":6736,"Ġdeg":6737,"ĠBulgar":6738,"ĠAnderung":6739,"ĠUp":6740,"ĠMonaten":6741,"wser":6742,"ĠBemuhungen":6743,"Ġlangfrist":6744,"pret":6745,"ĠSolidaritat":6746,"ĠFlor":6747,"Ġvergessen":6748,"Ġsufficient":6749,"Also":6750,"Ġideas":6751,"angeb":6752,"ĠBedurf":6753,"ĠLinie":6754,"achtung":6755,"ola":6756,"Ġfruher":6757,"unge":6758,"ĠArmut":6759,"Ġrequires":6760,"ĠFolge":6761,"obby":6762,"Ġgeeign":6763,"Ġverhindern":6764,"Ġfeature":6765,"ĠMediterranean":6766,"iability":6767,"ĠTagesordnung":6768,"Dabei":6769,"iveau":6770,"Ġcurren":6771,"Ġkil":6772,"Ġhil":6773,"Ġforces":6774,"ĠMos":6775,"estens":6776,"ĠNacht":6777,"Ġexception":6778,"Ð»":6779,"Ġinfrastruct":6780,"Ġausgezeich":6781,"ĠBurgern":6782,"Jed":6783,"vere":6784,"ĠVal":6785,"ĠSum":6786,"ĠTerm":6787,"Ġgenannten":6788,"schreit":6789,"ampfen":6790,"unsche":6791,"Ġgetan":6792,"fo":6793,"Ġunbe":6794,"Ġweak":6795,"fullt":6796,"based":6797,"Ġfrequ":6798,"estic":6799,"ocol":6800,"Ġorganisations":6801,"umen":6802,"spiel":6803,"Ġ31":6804,"ĠVertreter":6805,"strumente":6806,"tellten":6807,"{{":6808,"rift":6809,"hinder":6810,"ĠAgrar":6811,"DF":6812,"Ġspee":6813,"Ġminimum":6814,"Ġbehandelt":6815,"ÃŁt":6816,"Ġweeks":6817,"Ġlas":6818,"Ġdoubt":6819,"Ġadvantage":6820,"sych":6821,"upp":6822,"Ġtomor":6823,"cape":6824,"Qu":6825,"ĠBeschluss":6826,"Ġerfolgt":6827,"ĠRessourcen":6828,"ĠDet":6829,"Ġprasent":6830,"craft":6831,"Ġhistoric":6832,"zufuhren":6833,"Ġcongratulate":6834,"Ġtomorrow":6835,"Ġol":6836,"Ġnutz":6837,"ĠDritt":6838,"Ġvorher":6839,"ĠTagen":6840,"Ġmodified":6841,"Ġreference":6842,"ifel":6843,"Ġanderem":6844,"ĠKredit":6845,"Ġwaste":6846,"Ġimplemented":6847,"Ġgewahl":6848,"ahrungs":6849,"Ġbeant":6850,"Ġpartnership":6851,"ibe":6852,"Ġsecure":6853,"Ġhear":6854,"Every":6855,"Ġsales":6856,"ĠDirective":6857,"Ġlanger":6858,"aktion":6859,"Ġshopping":6860,"wal":6861,"Ġnimmt":6862,"II":6863,"Ġclients":6864,"Ġrelating":6865,"ĠAng":6866,"Ġlines":6867,"ischem":6868,"ordination":6869,"gewiesen":6870,"irl":6871,"ĠSpezial":6872,"ĠKol":6873,"Ġnah":6874,"Ġstarting":6875,"esellschaften":6876,"ĠProduktions":6877,"ĠAuto":6878,"22":6879,"Ġpublished":6880,"):":6881,"Ġreduction":6882,"Ġreich":6883,"Ġbedroom":6884,"Ġmonitoring":6885,"App":6886,"Ġversucht":6887,"03":6888,"Ġrestr":6889,"Ġpaar":6890,"Ġmorning":6891,"ĠBeginn":6892,"vis":6893,"Ġsyn":6894,"Ġbesondere":6895,"ĠRestaurants":6896,"aint":6897,"hnt":6898,"Ġgrowing":6899,"Ġlives":6900,"ĠPalest":6901,"ĠMilliar":6902,"Ġcaused":6903,"Ġdan":6904,"frastruktur":6905,"45":6906,"Ġcomprehensive":6907,"Zweit":6908,"leistung":6909,"ĠAtmosphare":6910,"ĠBehandlung":6911,"Ġerklart":6912,"Ġefficiency":6913,"Ġmaximum":6914,"rem":6915,"Ġoperating":6916,"Ġful":6917,"Ġcircum":6918,"pective":6919,"Ġjen":6920,"Ġausreich":6921,"Ġkont":6922,"Ġusw":6923,"Ġwr":6924,"ĠBurgerinnen":6925,"CO":6926,"ĠSign":6927,"ategie":6928,"Ġmachine":6929,"theless":6930,"ula":6931,"ĠGebaude":6932,"ĠDiese":6933,"Ġready":6934,"stitutional":6935,"hafte":6936,"Ġaccordance":6937,"bung":6938,"Ġmeaning":6939,"Ġrapid":6940,"spricht":6941,"zielle":6942,"Ġserver":6943,"During":6944,"Ġsechs":6945,"ĠAufgaben":6946,"Ġrecon":6947,"icken":6948,"ĠGerichts":6949,"Ġcampaign":6950,"Ġded":6951,"Ġanti":6952,"ĠKommissions":6953,"Many":6954,"ĠDo":6955,"ĠEinfluss":6956,"Ġuberhaupt":6957,"Although":6958,"ĠMer":6959,"Nur":6960,"Ġgewesen":6961,"Ġmitt":6962,"rankt":6963,"Ġunbed":6964,"Ġsports":6965,"Ġerfullen":6966,"ĠBot":6967,"kret":6968,"ungsver":6969,"ros":6970,"Ġoptions":6971,"Ġinitial":6972,"ĠVen":6973,"Furthermore":6974,"LA":6975,"ius":6976,"ulated":6977,"oon":6978,"Ġstreet":6979,"itch":6980,"Ġanything":6981,"ĠErfahrungen":6982,"book":6983,"standing":6984,"ichert":6985,"iment":6986,"Ġko":6987,"schriftlich":6988,"Ġurg":6989,"SP":6990,"Kon":6991,"Ġzahlreichen":6992,"ĠMult":6993,"Ġwarum":6994,"Ġsometimes":6995,"wenden":6996,"Ġbegin":6997,"Ġberucksichtigt":6998,"Ġsal":6999,"ĠStock":7000,"ĠVergangen":7001,"ĠRegierungs":7002,"ĠMinder":7003,"ÂŃ":7004,"Ġgunst":7005,"Ġsup":7006,"Ph":7007,"zlich":7008,"stein":7009,"Ġtechnologies":7010,"ĠErd":7011,"Ġcritic":7012,"ĠOpen":7013,"itation":7014,"Ġborder":7015,"Ġmensch":7016,"atform":7017,"Ġplayers":7018,"Ġdisp":7019,"ĠGrundsatz":7020,"flache":7021,"ĠProtokoll":7022,"ĠVilla":7023,"pool":7024,"Ġoffiz":7025,"ĠZentral":7026,"ĠBal":7027,"ĠSchla":7028,"Ġpictures":7029,"Ġextent":7030,"Ġbetreff":7031,"Ġgerecht":7032,"dent":7033,"Ġunterb":7034,"Ġcharm":7035,"Ġadvert":7036,"Ġprobably":7037,"ĠEt":7038,"ĠWerte":7039,"Ġgl":7040,"ĠZur":7041,"Ġchance":7042,"izienz":7043,"nungen":7044,"Ġlanguages":7045,"Ġones":7046,"Ġbegan":7047,"Ġterrorism":7048,"mus":7049,"alyse":7050,"}}":7051,"Ġswimming":7052,"Ġfarmers":7053,"Ġremov":7054,"Ġexport":7055,"Ġstimmen":7056,"Ġworldwide":7057,"board":7058,"ĠAustria":7059,"kont":7060,"âĢĵ":7061,"Ġrichtige":7062,"Ġcast":7063,"ĠVerteid":7064,"ĠVergangenheit":7065,"Acc":7066,"ĠgroÃŁte":7067,"ĠAspekte":7068,"Ġstaat":7069,"Ġeingeb":7070,"',":7071,"ĠPraxis":7072,"utive":7073,"oke":7074,"ichern":7075,"Ġmethods":7076,"Ġcounter":7077,"Ġsav":7078,"ĠCenter":7079,"ĠSecurity":7080,"Ġwelches":7081,"ohnung":7082,"grundet":7083,"ado":7084,"legten":7085,"Ġjeweiligen":7086,"last":7087,"Ġinterested":7088,"Ġvoting":7089,"uben":7090,"Ġapprec":7091,"angt":7092,"Ġchallenge":7093,"IV":7094,"ifically":7095,"ĠAnstreng":7096,"ĠWahrung":7097,"ĠAk":7098,"ĠNeu":7099,"ĠInhalt":7100,"Ġemail":7101,"Ġverpflichtet":7102,"Ġuberw":7103,"ĠTechnologie":7104,"Ġtransparent":7105,"SS":7106,"Ġsectors":7107,"ĠMc":7108,"iding":7109,"ĠKe":7110,"Ġrespond":7111,"ĠIniti":7112,"izes":7113,"Ġselection":7114,"Ġeinheit":7115,"ĠConference":7116,"Ġstets":7117,"ĠFinanzierung":7118,"Ġtourist":7119,"ĠTerrorismus":7120,"ktive":7121,"izing":7122,"Ġseines":7123,"Ġscientific":7124,"Ġhistorischen":7125,"zeiten":7126,"ĠMenschenrechts":7127,"ĠHel":7128,"Ġwanted":7129,"Ġvalid":7130,"Ġwahlen":7131,"Ġgek":7132,"Ġsymbol":7133,"Ġarrange":7134,"Ġbill":7135,"Ġzustand":7136,"97":7137,"Ġreflect":7138,"Ġehem":7139,"reland":7140,"ĠGrand":7141,"Ġles":7142,"Ġcandid":7143,"Ġbald":7144,"inary":7145,"Ġbein":7146,"Ġcert":7147,"ĠauÃŁerhalb":7148,"Ġgames":7149,"ras":7150,"Ġaccepted":7151,"bas":7152,"iell":7153,"Ġrele":7154,"Ġrelease":7155,"icket":7156,"ĠTest":7157,"ĠGlaub":7158,"roll":7159,"ĠSchritte":7160,"Ġbusinesses":7161,"poses":7162,"vollen":7163,"star":7164,"Ġexerc":7165,"ĠTradition":7166,"abkommen":7167,"ĠAnfrage":7168,"Ġersch":7169,"Ġmodernen":7170,"ĠOpfer":7171,"ĠAirport":7172,"Ġzumindest":7173,"meer":7174,"fence":7175,"Ġverantwortlich":7176,"affe":7177,"ĠGreen":7178,"Ġverkauf":7179,"Ġpowers":7180,"Ġblo":7181,"Ġcrim":7182,"Ġdespite":7183,"zahlen":7184,"Ġupd":7185,"âĢĿ.":7186,"urt":7187,"tempt":7188,"elte":7189,"ĠOption":7190,"zy":7191,"Ġelegant":7192,"gy":7193,"furt":7194,"nern":7195,"Ġfolgt":7196,"ĠZivil":7197,"Ġkam":7198,"ĠRechtsvorschriften":7199,"Ġfine":7200,"Ġmotor":7201,"ohnen":7202,"ĠWeiter":7203,"ĠVideo":7204,"ĠTH":7205,"Ġgemein":7206,"losigkeit":7207,"Ġschutzen":7208,"Ġincor":7209,"Ġinfluence":7210,"Ġvollstandig":7211,"Ġvisitors":7212,"atalog":7213,"ĠSpanien":7214,"Ġlies":7215,"Ġged":7216,"Ġwalking":7217,"ĠAngelegenheit":7218,"zul":7219,"ĠGel":7220,"Ġenorm":7221,"Ġverab":7222,"Ġexpert":7223,"Ġheutigen":7224,"Ġkl":7225,"verage":7226,"ĠDat":7227,"Ġpersonlichen":7228,"ĠReal":7229,"Ġcompetit":7230,"karte":7231,"Ġgenu":7232,"Ġimages":7233,"Ġremember":7234,"Ġtrying":7235,"imb":7236,"ĠMand":7237,"enh":7238,"Ġraised":7239,"gruppe":7240,"erdings":7241,"utze":7242,"Ġglo":7243,"Ġseparate":7244,"ĠWell":7245,"Zweitens":7246,"ATO":7247,"Meine":7248,"ĠWaren":7249,"Ġzukunft":7250,"Ġabsolutely":7251,"acc":7252,"ĠFur":7253,"ĠAngelegenheiten":7254,"ĠPet":7255,"ruption":7256,"akte":7257,"ĠWenn":7258,"barer":7259,"Ġhalt":7260,"ĠHerausforderungen":7261,"Ġfant":7262,"ĠBerat":7263,"Ġprem":7264,"anda":7265,"Ġinvestig":7266,"ĠGet":7267,"Ġuner":7268,"ĠSchwierigkeiten":7269,"Ġempf":7270,"ae":7271,"ĠMass":7272,"Ġsubstant":7273,"Ġtechnischen":7274,"ION":7275,"bit":7276,"ĠHafen":7277,"ids":7278,"ĠParteien":7279,"ĠFirmen":7280,"Ġcohes":7281,"Ġheav":7282,"Ġfolgenden":7283,"imed":7284,"Ġcoup":7285,"Ġanders":7286,"ĠChance":7287,"satze":7288,"werte":7289,"Ġerinnern":7290,"Ġris":7291,"quem":7292,"ĠausschlieÃŁlich":7293,"ĠVergleich":7294,"ologie":7295,"Ġdemands":7296,"Ġbessere":7297,"erkennung":7298,"ĠKn":7299,"haltnis":7300,"Ġdeutschen":7301,"ĠDoppel":7302,"uses":7303,"asc":7304,"gesetz":7305,"ĠAnnahme":7306,"ĠBeruf":7307,"ĠExper":7308,"zusetzen":7309,"Ġborders":7310,"komp":7311,"ĠHinsicht":7312,"lemente":7313,"Ġerlaubt":7314,"Ġspezif":7315,"Ġzust":7316,"ta":7317,"Ġaffe":7318,"Ġ1996":7319,"iant":7320,"Naturlich":7321,"Ġunten":7322,"prises":7323,"Ġclub":7324,"IF":7325,"ulations":7326,"Ġhonour":7327,"Ġinsp":7328,"Ġnamely":7329,"ĠâĢĶ":7330,"fung":7331,"Ġfields":7332,"ĠSuper":7333,"Ġmenu":7334,"Ġsil":7335,"Ġerwartet":7336,"Ġmanufactur":7337,"dere":7338,"ĠEnd":7339,"ĠVertrauen":7340,"Ġoffens":7341,"Ġslow":7342,"Ġlisten":7343,"ĠProzent":7344,"Ġinnovation":7345,"Ġanerk":7346,"ĠChinese":7347,"Ġangemessen":7348,"gewohn":7349,"Even":7350,"gehend":7351,"gult":7352,"Ġvital":7353,"Ġchanged":7354,"amin":7355,"Ġeffiz":7356,"Ġ).":7357,"Ġstrategic":7358,"ĠTier":7359,"Ġgetroffen":7360,"zog":7361,"Ġverurs":7362,"umer":7363,"iente":7364,"zulegen":7365,"âĢŀ":7366,"ĠIhres":7367,"Ġoverall":7368,"//":7369,"hilfe":7370,"ĠUK":7371,"Ġubernehmen":7372,"zuber":7373,"70":7374,"Ġannual":7375,"Ġallgemeinen":7376,"Ġkitchen":7377,"EG":7378,"Ġitalien":7379,"Ġtrack":7380,"laufen":7381,"Ġrepresentatives":7382,"lle":7383,"Ġcalls":7384,"ee":7385,"Ġearl":7386,"Ġfire":7387,"aters":7388,"Ġproceed":7389,"indungen":7390,"rogen":7391,"ĠÂ»":7392,"ighted":7393,"sb":7394,"ĠSM":7395,"ĠHaft":7396,"Ġseason":7397,"Heute":7398,"asions":7399,"Ġgesetz":7400,"ĠIreland":7401,"ĠWinter":7402,"Ġworked":7403,"reise":7404,"ollar":7405,"Ġinitiatives":7406,"Tro":7407,"ĠEigent":7408,"Ġgesehen":7409,"ĠEinrichtung":7410,"Ġoccur":7411,"ĠModell":7412,"Ġyourself":7413,"Ġprivaten":7414,"aries":7415,"ziert":7416,"used":7417,"Ġwiederhol":7418,"ĠGran":7419,"zufugen":7420,"Ġwrong":7421,"figur":7422,"Ġprocessing":7423,"Ġplayer":7424,"Ġdisapp":7425,"AG":7426,"ĠTal":7427,"Ġintended":7428,"ĠHuman":7429,"auern":7430,"vorsitz":7431,"Ġbitten":7432,"ĠGeneration":7433,"Ġtrip":7434,"Ġnegative":7435,"inens":7436,"ĠOrd":7437,"scht":7438,"Ġheard":7439,"hers":7440,"ĠBoden":7441,"Ġexpressed":7442,"immern":7443,"Secondly":7444,"bringen":7445,"While":7446,"ĠSpieler":7447,"ĠMicrosoft":7448,"Ġverlang":7449,"ĠBetriebs":7450,"isely":7451,"ores":7452,"ĠKapital":7453,"Ġevening":7454,"ĠSm":7455,"Ġdarstellt":7456,"mand":7457,"Ġzug":7458,"ĠIslam":7459,"Ġbeginnen":7460,"ĠPH":7461,"uly":7462,"Ġehemal":7463,"lymp":7464,"ĠbegruÃŁen":7465,"umin":7466,"ĠArbeitsplatze":7467,"Ġaccession":7468,"Ġangeboten":7469,"Ġzudem":7470,"ĠMess":7471,"ĠLiberal":7472,"Ġplans":7473,"ĠWahlen":7474,"Ġaward":7475,"Ġsetzt":7476,"QL":7477,"Ġbanks":7478,"ĠGene":7479,"Gleich":7480,"Ġcommitted":7481,"ĠBew":7482,"Ġendlich":7483,"Ġoccup":7484,"Ġcell":7485,"Inde":7486,"Ġautomatisch":7487,"ĠRussian":7488,"Ġability":7489,"European":7490,"Ġcities":7491,"Ġflexible":7492,"ibilitat":7493,"hood":7494,"Ġangene":7495,"Ġbir":7496,"Ġeindeutig":7497,"ildet":7498,"Ġbestimmt":7499,"ĠPrem":7500,"stoffe":7501,"bu":7502,"ystemen":7503,"nel":7504,"Ġtalking":7505,"Ġdipl":7506,"ĠBran":7507,"Not":7508,"Ġrestrict":7509,"zeichen":7510,"Ġtraffic":7511,"Ġfalls":7512,"Ġlove":7513,"ĠAbschluss":7514,"ĠMilliarden":7515,"Ġsimpl":7516,"Ġletzte":7517,"falle":7518,"ĠJohn":7519,"Ġgoal":7520,"krise":7521,"Ġtarget":7522,"Ġentgegen":7523,"ded":7524,"rieb":7525,"set":7526,"Ġtal":7527,"Ġfresh":7528,"aria":7529,"Ġdeine":7530,"ustausch":7531,"Ġed":7532,"ĠBeweg":7533,"TV":7534,"ahnen":7535,"ohol":7536,"ĠHause":7537,"ĠKrank":7538,"Ġtit":7539,"ĠSonder":7540,"Ġplaced":7541,"Ġphoto":7542,"Ġdatab":7543,"cluded":7544,"ories":7545,"Ġbenutzt":7546,"Ġsinn":7547,"ĠAgre":7548,"Ġalone":7549,"ĠBerichterstatterin":7550,"Ġrunning":7551,"Ġconcentr":7552,"Ġdringend":7553,"90":7554,"ĠAc":7555,"Ġmainly":7556,"Ġspect":7557,"Ġjem":7558,"Ġbemu":7559,"Ġhot":7560,"Ġcele":7561,"Ġelement":7562,"ĠOsterreich":7563,"ĠAmendment":7564,"rel":7565,"Ġauszu":7566,"Ġbeide":7567,"ĠBor":7568,"Ġfamilies":7569,"idelines":7570,"aÃŁt":7571,"etten":7572,"Ġplanning":7573,"Ġcohesion":7574,"Ġgenutzt":7575,"Ġbrand":7576,"Ġterrace":7577,"ĠAmb":7578,"handel":7579,"ĠAntrag":7580,"ĠAfghanistan":7581,"ĠLang":7582,"ĠEind":7583,"ĠVerfassung":7584,"usten":7585,"ĠSwiss":7586,"agraph":7587,"Ġrenew":7588,"bum":7589,"Ġbege":7590,"Ġumfang":7591,"Ġopening":7592,"ils":7593,"Ġimproved":7594,"Ġremind":7595,"ĠHostels":7596,"gebiet":7597,"ĠGold":7598,"lieÃŁen":7599,"Ġ195":7600,"Ġautom":7601,"Ġjustice":7602,"ĠHeim":7603,"Ġapproved":7604,"Ġethn":7605,"ĠArz":7606,"CD":7607,"Ġanc":7608,"ĠFreiz":7609,"grams":7610,"ĠDel":7611,"omet":7612,"Ġkaum":7613,"Ġhol":7614,"Ġdram":7615,"ĠAnstrengungen":7616,"ibly":7617,"Ðº":7618,"ĠVerpflichtungen":7619,"Moreover":7620,"ĠZustimmung":7621,"ĠgroÃŁere":7622,"ĠTatigkeit":7623,"ael":7624,"Ġreforms":7625,"Ġreag":7626,"Ġdecide":7627,"Ġbuy":7628,"avig":7629,"Ġconclusion":7630,"ĠGas":7631,"ĠWel":7632,"ĠAusschuÃŁ":7633,"Ġincreasingly":7634,"Ġwhom":7635,"96":7636,"ĠNATO":7637,"Ġregime":7638,"Ġstudents":7639,"ĠLeute":7640,"ĠVerhalten":7641,"Ġcurrency":7642,"Ġcomments":7643,"ĠKompromiss":7644,"Ġaffected":7645,"Ġfear":7646,"Ġattempt":7647,"Ġtot":7648,"stat":7649,"ĠVoll":7650,"ĠGesamt":7651,"Ġgenannt":7652,"bourg":7653,"Ġirgend":7654,"Ġerhoh":7655,"Ġadministrative":7656,"itory":7657,"Ġcircumstances":7658,"tritt":7659,"zentrum":7660,"stande":7661,"Ġlaws":7662,"quate":7663,"altungen":7664,"Ġkomfort":7665,"Ġzusatzliche":7666,"ĠBestand":7667,"Ġbilden":7668,"acion":7669,"zeigen":7670,"igran":7671,"ĠMitte":7672,"ĠSitzung":7673,"Ġfurn":7674,"Ġsuitable":7675,"ungsantrag":7676,"di":7677,"ifying":7678,"Ġinn":7679,"Ġprovision":7680,"Ġcollection":7681,"Ġemissions":7682,"ĠOrganisationen":7683,"itzt":7684,"ĠAusgang":7685,"Ġunbedingt":7686,"Ġ150":7687,"aschine":7688,"Ġtouch":7689,"ĠMex":7690,"Ġeingehen":7691,"Ġreduced":7692,"Ġautomatically":7693,"ĠGod":7694,"ĠNations":7695,"ĠAnerkennung":7696,"ĠPers":7697,"Ġbox":7698,"Lassen":7699,"azz":7700,"ĠIdee":7701,"Ġuberzeugt":7702,"ĠRoma":7703,"abr":7704,"Â»":7705,"Ġpriorities":7706,"Ġdelivery":7707,"Ġok":7708,"Ġmoderne":7709,"Ġphone":7710,"Ġentspricht":7711,"Ġmill":7712,"how":7713,"Ġwatch":7714,"ĠTher":7715,"wel":7716,"ĠBade":7717,"ĠGeorg":7718,"Ġapprox":7719,"schlieÃŁen":7720,"enty":7721,"Ġentstehen":7722,"ĠCy":7723,"Ġvorgelegt":7724,"Ġselbstverstandlich":7725,"Ġce":7726,"endence":7727,"Ġfeed":7728,"letter":7729,"Ġentschieden":7730,"Den":7731,"ĠDub":7732,"âĢľ.":7733,"Ġcontribute":7734,"ago":7735,"fahrens":7736,"Ġpo":7737,"Ġconfidence":7738,"Ġerkennen":7739,"ĠVerwaltung":7740,"Ġvertra":7741,"Ġadministration":7742,"Ġunemployment":7743,"ĠUberwach":7744,"ĠSlo":7745,"uts":7746,"ĠMilit":7747,"Ġverme":7748,"Ġcos":7749,"stark":7750,"engen":7751,"attle":7752,"Ġstructural":7753,"Ġintell":7754,"Ġgere":7755,"ĠPublic":7756,"ĠÂ«":7757,"ĠNachbar":7758,"Ġec":7759,"Ġsupports":7760,"Ġextend":7761,"Ġextensive":7762,"ĠAC":7763,"aufen":7764,"reiber":7765,"person":7766,"ĠFree":7767,"Ġsays":7768,"Ġgesetzt":7769,"Ġinfrastructure":7770,"Ġstabil":7771,"Ġensuring":7772,"brit":7773,"Ġoben":7774,"ĠBay":7775,"ĠZeitraum":7776,"ĠFlex":7777,"ĠGoogle":7778,"verlass":7779,"âĢĿ,":7780,"rust":7781,"ocation":7782,"ĠNews":7783,"mack":7784,"ĠTurk":7785,"War":7786,"daten":7787,"dra":7788,"zech":7789,"iano":7790,"ĠWissenschaft":7791,"artigen":7792,"Ġberucksichtigen":7793,"Ġcoordin":7794,"ideos":7795,"Ġzufrieden":7796,"Ġelektron":7797,"Neben":7798,"time":7799,"endet":7800,"ĠVerwaltungs":7801,"anlagen":7802,"Ġunterschiedlichen":7803,"struktur":7804,"Ġrise":7805,"Ġparticipation":7806,"Ġwesentlich":7807,"://":7808,"Ġmanner":7809,"ING":7810,"sm":7811,"Ġscope":7812,"Ġencourage":7813,"alled":7814,"Ġpowerful":7815,"Ġvictims":7816,"ĠVereinbarung":7817,"gruppen":7818,"Ġmedic":7819,"ĠHolz":7820,"ĠCop":7821,"folger":7822,"ragt":7823,"Ġspecifically":7824,"fun":7825,"aming":7826,"astinens":7827,"ĠEinkauf":7828,"burger":7829,"lying":7830,"26":7831,"Ġplayed":7832,"ĠIrak":7833,"PT":7834,"Ñĥ":7835,"La":7836,"Ġcrime":7837,"Ġangegeben":7838,"ĠKriterien":7839,"ĠGrie":7840,"haften":7841,"IG":7842,"Ġspeziell":7843,"Ġfellow":7844,"ĠSchwer":7845,"Ġelectronic":7846,"IR":7847,"ĠOsten":7848,"Ġchann":7849,"Ġaktuelle":7850,"ĠDurchfuhrung":7851,"Ġreception":7852,"het":7853,"Ġgezeigt":7854,"Ġmittel":7855,"fiz":7856,"ohlen":7857,"esearch":7858,"Allerdings":7859,"ĠBon":7860,"ampag":7861,"Ġbewusst":7862,"Ġmindestens":7863,"ĠHoff":7864,"Ġcas":7865,"Ġmehreren":7866,"ĠLicht":7867,"Ġtabled":7868,"Ġbenutzen":7869,"ĠVersch":7870,"benen":7871,"Ġpurposes":7872,"ongs":7873,"ĠKorper":7874,"iums":7875,"mel":7876,"inian":7877,"Viele":7878,"iler":7879,"Ġintroduced":7880,"ĠCosta":7881,"Ġverfugbar":7882,"Pl":7883,"Ġdemokratischen":7884,"Ġherunter":7885,"Ġagriculture":7886,"ĠDis":7887,"odies":7888,"Ġgren":7889,"Ġjeg":7890,"Ġhochwert":7891,"uchte":7892,"Ġhund":7893,"Ġfordert":7894,"Ġ1990":7895,"ifizierung":7896,"Ġdanke":7897,"Ġbra":7898,"Ġblack":7899,"Ġerreich":7900,"Ġentw":7901,"ĠAlle":7902,"Ġchurch":7903,"Ġnachdem":7904,"Ġquant":7905,"ĠWaffen":7906,"aktiv":7907,"wes":7908,"Ġplus":7909,"wasser":7910,"ova":7911,"orea":7912,"Ġentsprechende":7913,"ima":7914,"Ġhinweisen":7915,"Ġeffectively":7916,"luckw":7917,"amber":7918,"Ġgetting":7919,"trage":7920,"Ġlarger":7921,"ahrung":7922,"Ġsources":7923,"Ġ\"...":7924,"ĠAcht":7925,"Ġdetailed":7926,"Ġwonderful":7927,"Ġanimals":7928,"Str":7929,"Your":7930,"Ġharm":7931,"ĠGarant":7932,"Ġglauben":7933,"Ġserved":7934,"Ġship":7935,"ĠPartei":7936,"ĠDa":7937,"Ġaimed":7938,"Ġplatform":7939,"zeichnen":7940,"Ġscreen":7941,"ĠAnspruch":7942,"Ġmid":7943,"Ġreferred":7944,"idents":7945,"Ġcompetitive":7946,"uit":7947,"Ġusually":7948,"Ġfert":7949,"Ġbeschlossen":7950,"ĠArchite":7951,"ickets":7952,"spra":7953,"Ġfunctions":7954,"ault":7955,"ĠSpa":7956,"ĠKal":7957,"Comp":7958,"Ġmetres":7959,"mon":7960,"Ġnationale":7961,"idential":7962,"Ġsummit":7963,"Ġgesprochen":7964,"arus":7965,"Ġmm":7966,"Ġeuch":7967,"Ġdedic":7968,"Ġerwahnt":7969,"ĠVorteile":7970,"entwicklung":7971,"Ġglobalen":7972,"ĠGest":7973,"Ġpleasant":7974,"ĠMio":7975,"Ġmotion":7976,"Ġwert":7977,"esents":7978,"Ġmultip":7979,"Ġexactly":7980,"Ġserve":7981,"law":7982,"Ġangesprochen":7983,"Ġwhite":7984,"cers":7985,"Ġinstallation":7986,"ength":7987,"Ġsort":7988,"Ġrural":7989,"gal":7990,"Ġ45":7991,"Ġzentral":7992,"ĠAgreement":7993,"ĠMitteilung":7994,"Ġbesonderen":7995,"Einige":7996,"not":7997,"Ġpoll":7998,"Ġinstitutional":7999,"Ġrisks":8000,"Ġkontroll":8001,"ĠSea":8002,"Ġprotected":8003,"levision":8004,"ĠAutom":8005,"ĠSprachen":8006,"Ġprecisely":8007,"itzerland":8008,"Ġsitting":8009,"udem":8010,"called":8011,"Ġakzeptieren":8012,"Ġdead":8013,"zieht":8014,"Ġfallen":8015,"Ġclient":8016,"urses":8017,"avi":8018,"rimination":8019,"Ġsicherzustellen":8020,"ĠKoordin":8021,"iertel":8022,"Ġluxur":8023,"oted":8024,"zeption":8025,"ounge":8026,"Per":8027,"ingu":8028,"Ġvac":8029,"Ġtemper":8030,"Ġbecoming":8031,"bad":8032,"Ġstated":8033,"rankungen":8034,"Ġeingerichtet":8035,"Ġcamera":8036,"Ġconstruct":8037,"Ġpolice":8038,"Ġ2020":8039,"wirken":8040,"rum":8041,"Ġotherwise":8042,"fuhrer":8043,"ologischen":8044,"laus":8045,"Â°":8046,"ida":8047,"ĠHintergrund":8048,"Ġgeeignet":8049,"ĠEnterprise":8050,"ĠZeichen":8051,"Wann":8052,"Ġrepresents":8053,"Ġdiscussed":8054,"Ġwants":8055,"ĠWik":8056,"ĠInhalte":8057,"ield":8058,"Ġbudgetary":8059,"Ġmand":8060,"27":8061,"ĠFlucht":8062,"ĠAltern":8063,"ĠFluss":8064,"Ġwahrscheinlich":8065,"unkten":8066,"Ġdevelopments":8067,"lieÃŁlich":8068,"Ġbestehenden":8069,"agegen":8070,"quality":8071,"Ġdiscussions":8072,"ĠIP":8073,"ĠMensch":8074,"hohen":8075,"sam":8076,"IE":8077,"'ll":8078,"Ġtelephone":8079,"Ġbegrenz":8080,"ĠReformen":8081,"ĠEas":8082,"ev":8083,"Ġlikely":8084,"ĠElekt":8085,"Ġehr":8086,"onym":8087,"Spe":8088,"ray":8089,"ĠEinsch":8090,"Ġerzielt":8091,"ĠBoard":8092,"ĠFischerei":8093,"achtet":8094,"ĠRoman":8095,"ĠTab":8096,"Ġ;":8097,"ĠFot":8098,"Ġmix":8099,"laut":8100,"ruf":8101,"ĠArab":8102,"jected":8103,"35":8104,"Nun":8105,"enhagen":8106,"ĠKarte":8107,"Ġconvin":8108,"ĠSektor":8109,"ĠAsia":8110,"Dem":8111,"Ġdomin":8112,"Ġspacious":8113,"ĠHomepage":8114,"Ġ*":8115,"Ġprograms":8116,"Ġconver":8117,"Bet":8118,"ĠDre":8119,"Ġthousands":8120,"Ġfrag":8121,"ĠCast":8122,"Indeed":8123,"ĠIdent":8124,"ĠPolicy":8125,"anne":8126,"Ġauth":8127,"obilien":8128,"ĠLiber":8129,"Obwohl":8130,"01":8131,"Ġmanaged":8132,"Ġforget":8133,"ensions":8134,"ĠAusgaben":8135,"Ġsold":8136,"uisine":8137,"ĠLab":8138,"ĠMiddle":8139,"Ġfreuen":8140,"Ġexpens":8141,"Ġfestgelegt":8142,"Ġrechts":8143,"Ġmoglicherweise":8144,"Ġremark":8145,"ĠAssoc":8146,"ĠKonflikt":8147,"ĠHaltung":8148,"ĠErn":8149,"amente":8150,"Ġexpand":8151,"rifft":8152,"ĠHaushalt":8153,"ĠBemerk":8154,"ĠSand":8155,"Ġassessment":8156,"Ins":8157,"punkte":8158,"Ġentry":8159,"Ġzuletzt":8160,"Ġcovered":8161,"ĠAktions":8162,"ĠCzech":8163,"Ġspend":8164,"Ġpaper":8165,"ĠAufnahme":8166,"ĠRegional":8167,"Ġcritical":8168,"ĠSupp":8169,"Ġwundersch":8170,"Ġumgesetzt":8171,"preis":8172,"werke":8173,"ĠFrankfurt":8174,"cker":8175,"Ġcorresp":8176,"ĠVielfalt":8177,"ala":8178,"Ġexpected":8179,"Ġnotwendigen":8180,"categories":8181,"Ġjene":8182,"ĠIf":8183,"ĠKind":8184,"qualitat":8185,"Ġguidelines":8186,"ĠKenntnis":8187,"Ġprovider":8188,"Ġfinanziellen":8189,"Ġmil":8190,"Ġgeandert":8191,"Ġselected":8192,"ĠAN":8193,"Ġfollowed":8194,"Ġcentr":8195,"Ġhoffen":8196,"ĠDen":8197,"Ġregret":8198,"Ġanderes":8199,"Ġactual":8200,"Ġwood":8201,"orter":8202,"Ġinside":8203,"ĠAL":8204,"ĠBeitritts":8205,"Only":8206,"ĠAgenda":8207,"Ġearlier":8208,"Ġradio":8209,"Ġclosely":8210,"Ġlosen":8211,"icks":8212,"cause":8213,"Ġdienen":8214,"Ġmedical":8215,"ĠDav":8216,"Ġintroduction":8217,"ĠBi":8218,"ĠSalz":8219,"rate":8220,"inu":8221,"atik":8222,"ĠSing":8223,"ĠVerstand":8224,"ĠUnterkategorien":8225,"Ġerfullt":8226,"ureau":8227,"Ġunters":8228,"Ġweap":8229,"Ġergreifen":8230,"Ġunc":8231,"Ġbequem":8232,"ads":8233,"Ġdebt":8234,"ĠSchengen":8235,"do":8236,"ĠStil":8237,"ĠFakt":8238,"inc":8239,"DP":8240,"Ġfreien":8241,"ĠSam":8242,"ĠAcc":8243,"ĠDol":8244,"Ġlisted":8245,"Ġbuildings":8246,"itter":8247,"Ġvotes":8248,"arische":8249,"ĠIM":8250,"schrift":8251,"Ġverstark":8252,"Ġwinter":8253,"Ġenterprises":8254,"ĠOlymp":8255,"ĠWettbewerbsfahigkeit":8256,"ries":8257,"band":8258,"ulieren":8259,"Ġdispos":8260,"ĠSerb":8261,"Ġscen":8262,"Ġ1995":8263,"ĠAnpass":8264,"ĠMonate":8265,"atively":8266,"asts":8267,"ĠRichtlinien":8268,"Ġimpress":8269,"Ġ..":8270,"Ġbeziehen":8271,"prufung":8272,"Ġspread":8273,"Ġjederzeit":8274,"ĠGriechen":8275,"Ġwunschen":8276,"ĠHow":8277,"apital":8278,"nach":8279,"werten":8280,"ĠCode":8281,"ungss":8282,"ĠStraÃŁe":8283,"ĠMangel":8284,"either":8285,"Ġnetworks":8286,"ĠTechnologien":8287,"ĠVorbereit":8288,"ailing":8289,"Mein":8290,"ga":8291,"Ġvermeiden":8292,"hold":8293,"Ġadapt":8294,"Ġschwierig":8295,"spolitik":8296,"Ġelectric":8297,"Ġprufen":8298,"ĠFunktionen":8299,"ĠCard":8300,"Ġtrust":8301,"britann":8302,"can":8303,"ĠProdukten":8304,"chnologie":8305,"ĠBeschaftigungs":8306,"gets":8307,"Soll":8308,"ĠPaul":8309,"ĠLuxem":8310,"Ġoperations":8311,"gere":8312,"Ġimproving":8313,"Ġade":8314,"izenz":8315,"ĠFischere":8316,"Ġfahren":8317,"mod":8318,"Ġlinked":8319,"Ġterritor":8320,"Ġbraucht":8321,"Ġgraph":8322,"denken":8323,"Ġausger":8324,"Trotz":8325,"Ġgleiche":8326,"Ġopened":8327,"ham":8328,"Ġsupporting":8329,"vements":8330,"iro":8331,"Ġexplo":8332,"ohner":8333,"jekten":8334,"ĠStellen":8335,"rahmen":8336,"ĠKomfort":8337,"angs":8338,"Ġunderstanding":8339,"Ġimmigration":8340,"aves":8341,"platze":8342,"Intern":8343,"Ġspeech":8344,"eme":8345,"ulierung":8346,"sektor":8347,"ĠAusbildung":8348,"ĠKindern":8349,"Ġcolor":8350,"ogliche":8351,"bruch":8352,"ĠBesucher":8353,"Ġmarketing":8354,"ĠArten":8355,"riff":8356,"freiheit":8357,"ennis":8358,"Ġverbessert":8359,"Ġexclusive":8360,"Ihre":8361,"aser":8362,"crete":8363,"Ġconsiderable":8364,"Ġcomment":8365,"Ġstattfinden":8366,"ĠFebruary":8367,"ĠEst":8368,"ĠSchlaf":8369,"ĠFle":8370,"ĠWellness":8371,"Ġdegree":8372,"ishing":8373,"TA":8374,"gencies":8375,"ĠDownload":8376,"ĠNah":8377,"Ġuses":8378,"Ġkostenlos":8379,"ĠZus":8380,"zig":8381,"Ġwent":8382,"ĠInfrastruktur":8383,"ĠIndia":8384,"Ġbeds":8385,"Ġeinzu":8386,"ĠSon":8387,"Ġimpos":8388,"Ġgemut":8389,"Ġ?":8390,"SchlieÃŁlich":8391,"ĠMeter":8392,"union":8393,"ĠEv":8394,"ktiven":8395,"scher":8396,"ancen":8397,"Ġcompens":8398,"Ġsicherlich":8399,"etze":8400,"Ġmultil":8401,"Ġtempor":8402,"Ġhands":8403,"unfts":8404,"folgend":8405,"ĠKy":8406,"Ġmap":8407,"Ġsubstantial":8408,"Ġlesen":8409,"olden":8410,"ĠDateien":8411,"ĠVolker":8412,"ĠPrag":8413,"gment":8414,"ometer":8415,"clude":8416,"moglich":8417,"ua":8418,"ĠSchiff":8419,"reiten":8420,"Ġentsch":8421,"iques":8422,"Ġentit":8423,"akfast":8424,"Ġcompar":8425,"IB":8426,"uard":8427,"orgfalt":8428,"ahrt":8429,"ĠKonzept":8430,"Ġpresence":8431,"istence":8432,"ĠIndustr":8433,"brauch":8434,"ĠStrom":8435,"Ġabst":8436,"ora":8437,"ĠZweck":8438,"Dann":8439,"ĠJe":8440,"igem":8441,"Ġempfehl":8442,"Ġacqu":8443,"istrib":8444,"ĠMenge":8445,"Viel":8446,"Ġanimal":8447,"Ġries":8448,"Ġtourism":8449,"Ġshower":8450,"Ġdestro":8451,"hlung":8452,"itors":8453,"fte":8454,"Ġabzu":8455,"Ġgave":8456,"Ġ400":8457,"ĠEinrichtungen":8458,"wagen":8459,"Ġdarunter":8460,"ĠWahrungs":8461,"Ġgelangen":8462,"Ġsave":8463,"Ġeffizient":8464,"Ġproperly":8465,"RA":8466,"endit":8467,"partner":8468,"bew":8469,"Ġgewunsch":8470,"inder":8471,"rist":8472,"Ġcuisine":8473,"ĠWege":8474,"Ġjeweils":8475,"ĠSuche":8476,"Ġcomponents":8477,"Ger":8478,"Ġgern":8479,"Ġplaying":8480,"ĠFrem":8481,"ruckt":8482,"ADS":8483,"zieren":8484,"Ġerzielen":8485,"Ġbrief":8486,"itze":8487,"atoren":8488,"Ġangezeigt":8489,"EU":8490,"ĠStimme":8491,"auÃŁ":8492,"ĠTelefon":8493,"ĠTem":8494,"ĠBarro":8495,"ĠStandards":8496,"Ġdelay":8497,"uting":8498,"Ġitems":8499,"Ġdoor":8500,"Ġpurchase":8501,"Ġbott":8502,"ĠHier":8503,"ĠHil":8504,"ikanische":8505,"Ġentweder":8506,"gemeine":8507,"Ġfisheries":8508,"Ġphotograph":8509,"gut":8510,"konferenz":8511,"tere":8512,"Ġmatch":8513,"ĠVereinten":8514,"achte":8515,"Ġconvenient":8516,"Its":8517,"Ġduty":8518,"ĠTele":8519,"gemaÃŁ":8520,"Ġexperts":8521,"Ġfounded":8522,"luÃŁ":8523,"Ġpicture":8524,"chmal":8525,"Ġerhohen":8526,"ĠStart":8527,"Just":8528,"Ġmobil":8529,"28":8530,"Ġcoordination":8531,"leitung":8532,"Falls":8533,"Ġentirely":8534,"Ġubernachten":8535,"gebaut":8536,"Ġausdrucklich":8537,"ĠOpt":8538,"ĠErk":8539,"ĠLehr":8540,"Ġplants":8541,"ĠVerl":8542,"Ġging":8543,"Ġsole":8544,"wahlen":8545,"ĠBos":8546,"ĠCharakter":8547,"Ġsuppl":8548,"Ġformat":8549,"ĠOffice":8550,"Ġtypical":8551,"Ġauthority":8552,"Ġstrict":8553,"oman":8554,"Ġrefuge":8555,"Ġgekommen":8556,"Ġcompetitiveness":8557,"Ġpresidency":8558,"asks":8559,"ĠSinn":8560,"Ġgenerally":8561,"Ġuntern":8562,"Ġmusste":8563,"ĠSwitzerland":8564,"Ġteilweise":8565,"ao":8566,"ĠAp":8567,"Ġbesuchen":8568,"Ġsauber":8569,"ĠStation":8570,"Res":8571,"Ġsho":8572,"Ġelim":8573,"Ġwilling":8574,"Ġtack":8575,"Ġdifficulties":8576,"achsen":8577,"ĠSim":8578,"Ġdealing":8579,"ĠStreet":8580,"tempor":8581,"schul":8582,"Ġsagt":8583,"Ġtechnische":8584,"Ġwelcher":8585,"ĠBeih":8586,"club":8587,"Ġcoffe":8588,"Ġstandig":8589,"ĠTar":8590,"21":8591,"ĠDatei":8592,"Ġinterpret":8593,"Ġdetail":8594,"AbschlieÃŁend":8595,"ĠFebruar":8596,"ĠTun":8597,"Dazu":8598,"Ġkommenden":8599,"Ġhosp":8600,"itar":8601,"Ġstimme":8602,"Ġcombat":8603,"acher":8604,"Mitglied":8605,"ĠStatus":8606,"Ġwollte":8607,"etter":8608,"Ġbetonen":8609,"Ġpermanent":8610,"ĠThere":8611,"ĠKlimawand":8612,"ĠNetzwerk":8613,"Ġkomplex":8614,"Ġchines":8615,"uhlen":8616,"vey":8617,"Ġcriminal":8618,"lern":8619,"Ġconstit":8620,"ĠPlen":8621,"ĠBrussels":8622,"erstellen":8623,"Ġerstellt":8624,"Ġrelate":8625,"Ġpsych":8626,"Ġnieder":8627,"Ġzuvor":8628,"Ġspat":8629,"Ġverur":8630,"ĠEntwurf":8631,"Ġsuc":8632,"Ġgesp":8633,"Ġrecognis":8634,"According":8635,"ĠJose":8636,"ĠGreece":8637,"Ġorganisation":8638,"ĠBanken":8639,"Europe":8640,"ĠBereit":8641,"ĠAbsatz":8642,"ĠKlein":8643,"Ġklare":8644,"Ġub":8645,"ĠVo":8646,"Ġshops":8647,"Ġinformieren":8648,"fachen":8649,"overy":8650,"ossible":8651,"Ġhandeln":8652,"Ġpeaceful":8653,"Ġfunktioniert":8654,"Ġvehicles":8655,"Ġalte":8656,"ĠUniversitat":8657,"asche":8658,"Ġfacing":8659,"opol":8660,"Ġresist":8661,"chtet":8662,"Ġcalc":8663,"Ġmoral":8664,"EA":8665,"MU":8666,"ĠWie":8667,"2000":8668,"leistungs":8669,"Ġlernen":8670,"Ġfragen":8671,"ĠPack":8672,"Ġthinking":8673,"Erstens":8674,"Ġmachines":8675,"lisch":8676,"ugel":8677,"aken":8678,"henswurd":8679,"gewicht":8680,"ĠKommunikation":8681,"ameter":8682,"ĠInstrumente":8683,"mas":8684,"Ġsand":8685,"Ġ194":8686,"ishes":8687,"Ġdarstellen":8688,"Ġparagraph":8689,"Ġober":8690,"Ġgross":8691,"Ġspeaking":8692,"losung":8693,"ĠISO":8694,"Ġmeetings":8695,"Ġpercent":8696,"umn":8697,"Ser":8698,"Ġresort":8699,"Ġadjust":8700,"Ġflexibility":8701,"ĠLeistungen":8702,"ĠInitiativen":8703,"opf":8704,"stimm":8705,"portion":8706,"ĠExp":8707,"ĠBelarus":8708,"ĠVeranderungen":8709,"Ġconsideration":8710,"Ġaverage":8711,"Ġapplies":8712,"Ġtrave":8713,"ĠGroÃŁbritann":8714,"ĠArbeiten":8715,"gers":8716,"ĠBush":8717,"SC":8718,"Ġlands":8719,"inding":8720,"Ġdistrict":8721,"Ġnachste":8722,"Ġerh":8723,"Ġbecomes":8724,"Ġbear":8725,"Ġerfolgen":8726,"grad":8727,"Ġruss":8728,"Any":8729,"Ġnumbers":8730,"ĠAbgeordnete":8731,"ĠWebseite":8732,"Ġincome":8733,"ĠDienste":8734,"ĠWien":8735,"schech":8736,"Ġhour":8737,"ista":8738,"ĠBerichte":8739,"Ġdagegen":8740,"Ġpropose":8741,"ĠSysteme":8742,"Ġtold":8743,"lay":8744,"iking":8745,"ĠBegriff":8746,"Ġopposition":8747,"allel":8748,"ashion":8749,"ĠTeile":8750,"Ġfixed":8751,"ĠEngagement":8752,"Ġpractices":8753,"rucken":8754,"Ġdurchaus":8755,"Ġkonkrete":8756,"Ġdomestic":8757,"aker":8758,"Ġverring":8759,"Ġwenigen":8760,"Ġpromotion":8761,"Ġklass":8762,"Ġschl":8763,"yes":8764,"rance":8765,"ĠAbs":8766,"ĠZeiten":8767,"hrase":8768,"ĠHeil":8769,"embly":8770,"ĠGipfel":8771,"Ġsucceed":8772,"iche":8773,"erman":8774,"ĠLib":8775,"Ġunternehmen":8776,"Ġjur":8777,"ĠForderungen":8778,"Ġerleben":8779,"ĠMitgliedstaat":8780,"Ġsle":8781,"like":8782,"schau":8783,"Ġgradu":8784,"Ġdro":8785,"Ġbodies":8786,"LE":8787,"33":8788,"horde":8789,"Nicht":8790,"ĠMotor":8791,"ĠMadrid":8792,"CC":8793,"Ist":8794,"Ġdefic":8795,"Ġgewahrleistet":8796,"ĠFonds":8797,"ĠUbergang":8798,"Why":8799,"Ġcontra":8800,"Ġorient":8801,");":8802,"illing":8803,"Ġvolle":8804,"ĠProte":8805,"2010":8806,"ĠBand":8807,"Ġaims":8808,"Ġhimself":8809,"verkehrs":8810,"Ġtragt":8811,"SL":8812,"reifen":8813,"Ġeingesch":8814,"Ġ--":8815,"erehr":8816,"www":8817,"ĠApartments":8818,"uchten":8819,"ĠMaschinen":8820,"fuhrten":8821,"ris":8822,"alte":8823,"Ġmyself":8824,"Ġlif":8825,"passen":8826,"Selbst":8827,"Ġlokalen":8828,"Ġdefined":8829,"ĠGuest":8830,"ĠHauses":8831,"Each":8832,"Ġtelevision":8833,"Ġsuperv":8834,"Ġrent":8835,"atzung":8836,"ĠGebieten":8837,"Ġerklaren":8838,"ĠName":8839,"ĠEisen":8840,"Ġestablishment":8841,"cknow":8842,"Ġpolitics":8843,"Ġabsolut":8844,"esterday":8845,"uba":8846,"Ġ32":8847,"Ġeasier":8848,"Ġfreue":8849,"free":8850,"Ð²":8851,"Ġmiddle":8852,"ĠAnteil":8853,"isms":8854,"Ġfit":8855,"bericht":8856,"ando":8857,"ĠAtlant":8858,"Ġclaim":8859,"ĠVerm":8860,"making":8861,"Ġfle":8862,"Ġliebe":8863,"isierten":8864,"Ġsignal":8865,"ĠPhil":8866,"Ġadvanced":8867,"ĠMutter":8868,"ĠPakistan":8869,"Ġfruh":8870,"ĠKonigreich":8871,"ĠPoland":8872,"ĠEconomic":8873,"olo":8874,"worten":8875,"okraten":8876,"Ġbenotigt":8877,"jo":8878,"ĠAngaben":8879,"Ġgeograph":8880,"Ġclar":8881,"Ġdatabase":8882,"Ġsigned":8883,"Ġveroffentlicht":8884,"Then":8885,"Ġfinanzielle":8886,"utin":8887,"aub":8888,"ĠWorte":8889,"Ġpromoting":8890,"known":8891,"Ġfailure":8892,"year":8893,"Ġinformed":8894,"ĠHerausforderung":8895,"Ðĵ":8896,"Ġfinancing":8897,"ĠKritik":8898,"accept":8899,"ĠRein":8900,"ibet":8901,"Ġparliamentary":8902,"Ġzul":8903,"llos":8904,"Ġconduct":8905,"ĠLo":8906,"orient":8907,"ĠWass":8908,"Ġacknow":8909,"ĠRegelung":8910,"Ġseriously":8911,"Ġexperienced":8912,"Last":8913,"Ġerscheint":8914,"haben":8915,"Ġglob":8916,"ĠWeit":8917,"Ġancient":8918,"peratur":8919,"ĠInnovation":8920,"Ġhtt":8921,"Ġgering":8922,"ĠRatsvorsitz":8923,"ĠStellungnahme":8924,"Will":8925,"Ġschonen":8926,"Art":8927,"wogen":8928,"Ñı":8929,"Ġubertragen":8930,"Ġmulti":8931,"ĠKurz":8932,"Ġvoice":8933,"04":8934,"schung":8935,"Ġanyone":8936,"schiede":8937,"Ġdennoch":8938,"Ġmoglichst":8939,"ĠVersuch":8940,"pendence":8941,"Ġtranslation":8942,"ĠFreund":8943,"ĠRisiko":8944,"Ġcoffee":8945,"UN":8946,"ĠKil":8947,"iat":8948,"ĠWal":8949,"wurf":8950,"oyal":8951,"Ġlength":8952,"]],":8953,"ĠPrioritaten":8954,"ĠVill":8955,"ĠSehenswurd":8956,"flanzen":8957,"box":8958,"arter":8959,"Ġsty":8960,"Ġdifference":8961,"Ġdangerous":8962,"Europa":8963,"Ġkonzentrieren":8964,"etzungen":8965,"ĠEinhaltung":8966,"pper":8967,"05":8968,"spunkt":8969,"ĠEff":8970,"ĠTool":8971,"Ġverfolgen":8972,"Unfortunately":8973,"Ġpositions":8974,"zesse":8975,"ĠKingdom":8976,"Ġcooper":8977,"Ġimag":8978,"Ġestate":8979,"icians":8980,"ĠProv":8981,"karten":8982,"lager":8983,"Ġdifferences":8984,"Ġstructures":8985,"ĠZweifel":8986,"Dank":8987,"Ġgegenseit":8988,"Pres":8989,"Ġhop":8990,"ĠTechnik":8991,"ĠKompon":8992,"Ġcelebr":8993,"DA":8994,"ĠResearch":8995,"Ġconcrete":8996,"Ġconnected":8997,"arta":8998,"Ġmodels":8999,"Ġerstellen":9000,"ĠVien":9001,"Ġassociated":9002,"Ġstudies":9003,"Ġorganiz":9004,"ĠNI":9005,"Ġklicken":9006,"Ġstable":9007,"Ġdefence":9008,"ĠDorf":9009,"einen":9010,"ĠBrussel":9011,"deck":9012,"ibrary":9013,"Click":9014,"Ġappears":9015,"ĠGN":9016,"Ġwithdra":9017,"sto":9018,"Ġzerst":9019,"ĠEinigung":9020,"Ġinstance":9021,"kle":9022,"ĠVerfass":9023,"Fl":9024,"ĠSP":9025,"Part":9026,"ĠMoment":9027,"ĠKirche":9028,"ibel":9029,"ĠFormen":9030,"oster":9031,"ĠJahrhunderts":9032,"ĠPower":9033,"liance":9034,"Ġhouses":9035,"Ġwelcom":9036,"ENT":9037,"Ġunterschiedliche":9038,"ĠSonnen":9039,"Ġ2011":9040,"She":9041,"Ġhappened":9042,"Ġoppos":9043,"Ġpersonlich":9044,"ĠAufbau":9045,"Ġneighbour":9046,"Ġunto":9047,"Ġru":9048,"ĠMittelmeer":9049,"Ġimplementing":9050,"Ġsafeg":9051,"Ġcombination":9052,"table":9053,"ĠFen":9054,"2001":9055,"95":9056,"greif":9057,"Ġnord":9058,"ĠNahrungs":9059,"Ġabhang":9060,"ifiziert":9061,"Ġpet":9062,"LAN":9063,"Ġnennen":9064,"ĠTitel":9065,"Ġgegrundet":9066,"ĠAspekt":9067,"Ġbeaches":9068,"ĠAnalyse":9069,"zwischen":9070,"Ġadoption":9071,"Nachfolgend":9072,"ĠStuck":9073,"ĠAssociation":9074,"Ð¼":9075,"Ġbefur":9076,"Ġhumanitarian":9077,"ĠSekt":9078,"ĠGroÃŁe":9079,"Ġung":9080,"ĠGeist":9081,"Ġlegen":9082,"pal":9083,"ĠFore":9084,"ĠForum":9085,"yright":9086,"Ġnames":9087,"Ġamerikanischen":9088,"ĠGemeinsamen":9089,"licherweise":9090,"Ġcarefully":9091,"Zudem":9092,"Ġaccur":9093,"preise":9094,"Ġendgult":9095,"Ġcourses":9096,"Ġarticle":9097,"ĠEntschlieÃŁungsantrag":9098,"ategory":9099,"Ġumfasst":9100,"Ġunaccept":9101,"Ġcondem":9102,"Ġspielt":9103,"Ġgeleistet":9104,"Ġbetrachtet":9105,"leiten":9106,"schlage":9107,"Ġverloren":9108,"Ġimmediate":9109,"ĠLesung":9110,"ĠGeh":9111,"ura":9112,"Ġbooking":9113,"Ġcollabor":9114,"Ġmanage":9115,"body":9116,"ido":9117,"Ġimpossible":9118,"anger":9119,"abhangigkeit":9120,"tenance":9121,"ĠFound":9122,"Ġstatements":9123,"Ġexhibition":9124,"liefer":9125,"ĠHealth":9126,"door":9127,"iffer":9128,"Ġproducers":9129,"Ġverlassen":9130,"Ġagencies":9131,"ĠHerstellung":9132,"Chr":9133,"Ġcontro":9134,"ĠHol":9135,"opt":9136,"Ġspent":9137,"gas":9138,"ĠSaf":9139,"Ġreducing":9140,"estaurant":9141,"Ġalt":9142,"ĠMechan":9143,"Ġarrival":9144,"Ġdiskutieren":9145,"zeugung":9146,"Ġpositiv":9147,"Ġau":9148,"lete":9149,"ibli":9150,"Ġtut":9151,"Ġevidence":9152,"Ġindire":9153,"Ġausges":9154,"ĠTerrasse":9155,"ĠEindruck":9156,"ĠMount":9157,"Ġtruly":9158,"nam":9159,"Ġcalling":9160,"Ġattractive":9161,"Ġleader":9162,"regel":9163,"ĠEnvironment":9164,"lasse":9165,"Ġarchitecture":9166,"stattung":9167,"aby":9168,"ading":9169,"Innen":9170,"Ġguarantees":9171,"Ġreasonable":9172,"ĠPHP":9173,"Ġfulfil":9174,"oring":9175,"ĠSanta":9176,"Ġcred":9177,"ĠRechnungs":9178,"Date":9179,"Ġunabhangig":9180,"ylum":9181,"Ġannounced":9182,"Ġrecognition":9183,"road":9184,"Ġdenken":9185,"Ġdescribed":9186,"Leider":9187,"Ġbehaup":9188,"haber":9189,"Ġhoren":9190,"sized":9191,"ĠWald":9192,"ĠErw":9193,"Ġerforderlichen":9194,"Ġhinzufugen":9195,"ĠCasino":9196,"ĠHy":9197,"Ġhttp":9198,"ointed":9199,"auftrag":9200,"Ġshared":9201,"Ġfeststellen":9202,"ĠVan":9203,"bil":9204,"ĠKatastrop":9205,"Ġzweit":9206,"Ġcult":9207,"ĠPaket":9208,"iegel":9209,"ktivitat":9210,"ĠBlack":9211,"Ġcompla":9212,"tellungen":9213,"ĠMuse":9214,"organisation":9215,"Ġmist":9216,"Ġgenuine":9217,"Ġsatell":9218,"ĠKenn":9219,"ĠBetrieb":9220,"Because":9221,"Ġerleich":9222,"meld":9223,"ĠHor":9224,"Ġreleased":9225,"piel":9226,"wissen":9227,"Ġexcess":9228,"Ġbackground":9229,"Ġabgeschlossen":9230,"ĠInstallation":9231,"ĠauÃŁ":9232,"Ġcharged":9233,"gl":9234,"Ġtrag":9235,"eto":9236,"ĠStraf":9237,"active":9238,"Ġterritory":9239,"ĠCre":9240,"Ġgarantiert":9241,"Ġadvance":9242,"ĠSehenswurdigkeiten":9243,"ĠAv":9244,"Ġahead":9245,"ĠVielzahl":9246,"ugos":9247,"Ġfacilit":9248,"Can":9249,"ource":9250,"ĠTexte":9251,"Ġwin":9252,"Ġdiscrimination":9253,"ĠJustice":9254,"ĠStarkung":9255,"Script":9256,"ĠMesse":9257,"Ġtaste":9258,"Ġentertain":9259,"Ġavailability":9260,"Ġarbeitet":9261,"Ġimprovement":9262,"ĠFernse":9263,"ĠHarmon":9264,"ĠIdeen":9265,"reten":9266,"Ġeiniger":9267,"Ġenth":9268,"Ġforest":9269,"Ġpossibilities":9270,"Ġdelic":9271,"Ġmonetary":9272,"Ġcards":9273,"ĠMarkte":9274,"Ġwishes":9275,"Ġdurf":9276,"ĠSorge":9277,"ĠBaum":9278,"riendly":9279,"cts":9280,"temporary":9281,"ĠSpr":9282,"omit":9283,"Ġkulturellen":9284,"irus":9285,"ĠIrish":9286,"Ġrob":9287,"jahrigen":9288,"02":9289,"ĠRechnung":9290,"ĠEine":9291,"Ġmembership":9292,"itious":9293,"condition":9294,"ĠJahrzehn":9295,"Ġhingewiesen":9296,"Ġuberprufen":9297,"Ġrelaxing":9298,"raucher":9299,"ĠReserv":9300,"Ġurban":9301,"Ġdesire":9302,"ĠEmpfang":9303,"75":9304,"try":9305,"posit":9306,"Ġsn":9307,"Ġubrigen":9308,"Ġausgewahl":9309,"ologische":9310,"iscal":9311,"Ġunacceptable":9312,"Ġowners":9313,"MS":9314,"Ġglass":9315,"Ġtatig":9316,"Ġnearby":9317,"Ġcontinued":9318,"ĠKompet":9319,"Ġconsumption":9320,"ensus":9321,"ĠRuhe":9322,"fest":9323,"ĠAnwendungen":9324,"ĠLam":9325,"icking":9326,"grade":9327,"Ġtasks":9328,"rak":9329,"Never":9330,"Ġspl":9331,"Ġmiteinander":9332,"Ġoccasion":9333,"Ġskills":9334,"with":9335,"Ġparticipate":9336,"ĠStein":9337,"ĠAusfuhr":9338,"Ġausreichend":9339,"ĠEntwicklungen":9340,"Ġaufmerksam":9341,"weist":9342,"ĠArbeitslosigkeit":9343,".âĢĿ":9344,"gestimmt":9345,"Ġow":9346,"Ġisol":9347,"istisch":9348,"riminal":9349,"Ġfigures":9350,"Ġcontinues":9351,"Ġintroduce":9352,"Ġbezeichnet":9353,"34":9354,"krieg":9355,"Ġtrading":9356,"Ġcars":9357,"Ġvernunft":9358,"ĠBarroso":9359,"Ġrichtigen":9360,"real":9361,"haltet":9362,"Ġcombined":9363,"omas":9364,"Ġgeneration":9365,"Ġgreatest":9366,"comm":9367,"ĠSaint":9368,"obel":9369,"Ġeffektiv":9370,"urb":9371,"Ġuna":9372,"Ġkomplett":9373,"ĠAussicht":9374,"formationen":9375,"System":9376,"erungs":9377,"ĠUmfang":9378,"ĠPolize":9379,"ĠBedarf":9380,"Produ":9381,"bieter":9382,"fra":9383,"ĠWall":9384,"36":9385,"onia":9386,"Ġstrongly":9387,"ĠSchon":9388,"Once":9389,"ĠHersteller":9390,"Ġcompleted":9391,"ĠPrioritat":9392,"ĠWand":9393,"ĠDemocrats":9394,"100":9395,"Ġallowing":9396,"Ġprofitieren":9397,"ĠGroÃŁbritannien":9398,"ilst":9399,"ĠAchtung":9400,"Ġexcept":9401,"Bahn":9402,"Ġweiterer":9403,"sequent":9404,"strom":9405,"Her":9406,"Ġconv":9407,"ombin":9408,"32":9409,"uble":9410,"Ġdevices":9411,"%.":9412,"ĠHamburg":9413,"Ġraise":9414,"ema":9415,"ireless":9416,"Ġeingefuhrt":9417,"Ġsurrounding":9418,"Ġunfortunately":9419,"Ġunless":9420,"Ġpackages":9421,"ĠBedurfnisse":9422,"Ġentitled":9423,"New":9424,"technik":9425,"ĠHerz":9426,"Ġattach":9427,"Ġtransition":9428,"government":9429,"utch":9430,"ĠTourismus":9431,"ĠHeimat":9432,"Ġmission":9433,"Ġpure":9434,"ikal":9435,"Ġunf":9436,"ador":9437,"bindung":9438,"zz":9439,"bere":9440,"Ġgewinnen":9441,"ĠElement":9442,"ĠProblemen":9443,"Ġsale":9444,"Ġbeauty":9445,"Ġattractions":9446,"chnet":9447,"ĠAsyl":9448,"ny":9449,"leihen":9450,"Ġreligious":9451,"Ġenables":9452,"'re":9453,"ĠKonz":9454,"Ġburden":9455,"ĠVerletz":9456,"Ġkonstru":9457,"Ġeconomies":9458,"38":9459,"ĠEngland":9460,"grunde":9461,"Ġsquare":9462,"Ġregistered":9463,"Sub":9464,"Ġriver":9465,"Vers":9466,"ĠNutzen":9467,"ĠRand":9468,"Ġtaglich":9469,"Ġmeters":9470,"Ġvoraus":9471,"ĠFoundation":9472,"Ġuberall":9473,"Ġgeschehen":9474,"gesichts":9475,"assung":9476,"ĠTechn":9477,"ĠBeitritt":9478,"Ġregionalen":9479,"Ġappeal":9480,"hy":9481,"wan":9482,"Ġborn":9483,"fehlungen":9484,"liegt":9485,"Ġcapt":9486,"ĠGeschaftsordnung":9487,"Ġmicro":9488,"Ġbeginnt":9489,"handlungs":9490,"Most":9491,"Ġeinsetzen":9492,"Ġdanach":9493,"bring":9494,"ĠLeistung":9495,"windigkeit":9496,"Jetzt":9497,"ĠDollar":9498,"ĠKunstler":9499,"ĠFlexibilitat":9500,"linge":9501,"Ġcloser":9502,"Ġinsurance":9503,"Ġsurface":9504,"andidaten":9505,"ĠBa":9506,"eller":9507,"ĠAfrican":9508,"ĠMel":9509,"Ġausfuhr":9510,"Ġrelativ":9511,"Ġvorliegenden":9512,"Ġfruit":9513,"ĠUberwachung":9514,"Ġdedicated":9515,"Ġentstanden":9516,"bieten":9517,"viel":9518,"ungsk":9519,"Ġspezielle":9520,"Ġwindow":9521,"allery":9522,"ĠFestival":9523,"ausschusses":9524,"Ġsamtliche":9525,"anische":9526,"chem":9527,"version":9528,"Ġmussten":9529,"ĠPatienten":9530,"Ġvul":9531,"Ġunterstutze":9532,"ĠDiskrimin":9533,"Ġreservation":9534,"ĠRome":9535,"ĠImmobilien":9536,"Ġexercise":9537,"ĠNether":9538,"Ġgram":9539,"igned":9540,"Ġ1994":9541,"ĠAllgemein":9542,"Ġbestatigt":9543,"Ġverz":9544,"Ġvert":9545,"Ġ75":9546,"ĠEffe":9547,"Ġunion":9548,"Ġwirks":9549,"Ġcommand":9550,"Ġliter":9551,"ĠVerpflichtung":9552,"ĠTurkish":9553,"Ġbesitzt":9554,"ĠSuch":9555,"ĠEntsch":9556,"Ġkeinerlei":9557,"Ġgegenwartig":9558,"ĠBut":9559,"Ġholidays":9560,"ĠPoker":9561,"Ġasylum":9562,"Ġverfolgt":9563,"upts":9564,"ĠColle":9565,"ĠAfrika":9566,"atever":9567,"Cont":9568,"rochen":9569,"Ġenormous":9570,"macht":9571,"Ġgrenzuber":9572,"ipe":9573,"zahlung":9574,"Ġfranzosischen":9575,"Ġromant":9576,"Other":9577,"program":9578,"Ġfolgende":9579,"Ġindividuals":9580,"ĠJustiz":9581,"ĠGerichtshof":9582,"Ġearth":9583,"Ġexpendit":9584,"ĠGrenz":9585,"Ġperspective":9586,"Ġsides":9587,"Ġvision":9588,"ĠMax":9589,"ĠFinn":9590,"gu":9591,"Ġverehr":9592,"ĠPolen":9593,"Ġnorm":9594,"ĠDrogen":9595,"ĠAnlagen":9596,"Ġniedr":9597,"Ġbeteiligt":9598,"ĠAK":9599,"flug":9600,"Dennoch":9601,"iest":9602,"zep":9603,"Ġgeschutzt":9604,"Ġdeclar":9605,"Ġforced":9606,"Ġclaims":9607,"Ġzentrale":9608,"Ġwachs":9609,"Ġpolitischer":9610,"ĠMaria":9611,"Up":9612,"irms":9613,"ĠChancen":9614,"Ġtotally":9615,"afr":9616,"aktionen":9617,"ĠLandwir":9618,"ĠRooms":9619,"ĠElemente":9620,"ĠHohen":9621,"Ġgestalten":9622,"isierte":9623,"Ġadvertising":9624,"ague":9625,"ĠEuropaer":9626,"Ġnotice":9627,"Ġvollkommen":9628,"ario":9629,"Ġstim":9630,"Ġmeant":9631,"Ġ36":9632,"fle":9633,"Ġkept":9634,"stands":9635,"Pe":9636,"ammer":9637,"hohung":9638,"Ġrailway":9639,"Ind":9640,"aÃŁen":9641,"Ġreliable":9642,"ĠPartnerschaft":9643,"Ġhaupts":9644,"ĠFel":9645,"Ġinstalled":9646,"ĠAltstadt":9647,"log":9648,"Ġoffensichtlich":9649,"ĠFortschritt":9650,"ĠgroÃŁeren":9651,"ĠMP":9652,"iam":9653,"Firstly":9654,"Ġestablishing":9655,"Ġbutton":9656,"ĠgroÃŁes":9657,"itts":9658,"anen":9659,"ĠWorten":9660,"Ġeinver":9661,"ĠChristian":9662,"TE":9663,"Ġkunst":9664,"Ġlearning":9665,"Ġgranted":9666,"ĠBern":9667,"Bar":9668,"Parliament":9669,"Ġdiss":9670,"Ġjour":9671,"Ġhochste":9672,"Ġeinfache":9673,"Ġluxury":9674,"ĠOrig":9675,"ĠGebrauch":9676,"olge":9677,"Ġstory":9678,"ĠTeilnehmer":9679,"Ġergeben":9680,"istik":9681,"athed":9682,"Fi":9683,"alia":9684,"ĠWi":9685,"ĠPrime":9686,"Ġfailed":9687,"ĠTrade":9688,"Ġcompared":9689,"Ġconvinced":9690,"gegeben":9691,"ĠEuropeans":9692,"Ġoptimal":9693,"Ġgegenwartigen":9694,"Ġempfehlen":9695,"rupt":9696,"mittag":9697,"qual":9698,"Ġstorage":9699,"eds":9700,"Ġshop":9701,"Ġgenet":9702,"Ġurgent":9703,"kunden":9704,"Ġgrant":9705,"Ġgarantieren":9706,"Ġreprodu":9707,"Ġdevice":9708,"ergie":9709,"Ġveget":9710,"Ġhighlight":9711,"Ġextended":9712,"Ġpara":9713,"ĠStadtz":9714,"Ġmemory":9715,"ĠGut":9716,"ĠAlex":9717,"attform":9718,"Ġstands":9719,"ĠVienna":9720,"2009":9721,"Ġspending":9722,"Ġwarten":9723,"Ġbuffet":9724,"Ġdauer":9725,"Ġbiggest":9726,"Ġmountains":9727,"Os":9728,"ĠMedia":9729,"reu":9730,"utzer":9731,"ĠRegelungen":9732,"itage":9733,"Ġforth":9734,"Ġsolcher":9735,"Ġseven":9736,"xts":9737,"oram":9738,"ĠEADS":9739,"Ġconclusions":9740,"ĠIns":9741,"Ġcourt":9742,"Ġscience":9743,"Ġgutes":9744,"Ġverbundenen":9745,"Ġep":9746,"Ġsession":9747,"Ġpassed":9748,"Ġbeige":9749,"ktions":9750,"Ġelimin":9751,"Ġgolf":9752,"asil":9753,"Ġinternationaler":9754,"ĠMaÃŁe":9755,"Ġhy":9756,"Ġprison":9757,"Ġrefle":9758,"Ġzusatzlich":9759,"Ġumfassende":9760,"onial":9761,"ĠTisch":9762,"ĠRegulation":9763,"ĠUSB":9764,"Ġtief":9765,"Ġchair":9766,"ĠTop":9767,"Ent":9768,"Ġcontrols":9769,"ibliothe":9770,"fers":9771,"ĠHall":9772,"Ġgrundsatz":9773,"ĠMeeres":9774,"ĠIrland":9775,"utzung":9776,"Ġunable":9777,"gef":9778,"Ġformal":9779,"ĠGlobalisierung":9780,"Ġbeinhaltet":9781,"Ġnaher":9782,"ĠSchif":9783,"istor":9784,"Ġfinance":9785,"Ġcontrary":9786,"ĠFederal":9787,"enkt":9788,"reibt":9789,"ĠNetherlands":9790,"Ġenfor":9791,"Ġcorporate":9792,"hebung":9793,"aket":9794,"Ġfactors":9795,"uros":9796,"Ġmoving":9797,"64":9798,"Ġadvice":9799,"Ġhum":9800,"ĠBeteiligung":9801,"ternen":9802,"Ġaufzu":9803,"Gu":9804,"==":9805,"Ġliber":9806,"ĠFoto":9807,"ilot":9808,"Ġmotiv":9809,"reisen":9810,"iode":9811,"Ġ),":9812,"Ġwesentlichen":9813,"29":9814,"ĠMik":9815,"Warum":9816,"Ġdefinition":9817,"Ġcore":9818,"Ġmagn":9819,"Ġtried":9820,"ancial":9821,"Ġsogen":9822,"heits":9823,"Ġdisease":9824,"ky":9825,"ĠLake":9826,"ques":9827,"Sterne":9828,"verein":9829,"Ihr":9830,"Ġdimension":9831,"SQL":9832,"ĠGegensatz":9833,"Ġmode":9834,"ĠSen":9835,"ington":9836,"ĠBewertung":9837,"Ġdrawn":9838,"Ġlaid":9839,"anim":9840,"actions":9841,"Ġperfectly":9842,"ufe":9843,"Ġregistr":9844,"ĠPPE":9845,"ĠHard":9846,"Ġleb":9847,"Ġdefend":9848,"ĠJu":9849,"Ġweapons":9850,"igrants":9851,"Ġscale":9852,"ĠDigital":9853,"Ġmob":9854,"Ġearn":9855,"ĠDefin":9856,"ĠUrs":9857,"Such":9858,"ĠMindest":9859,"Ġexpression":9860,"Ġguide":9861,"Ġartists":9862,"Ġpour":9863,"Ġintervention":9864,"Ġsecret":9865,"Ġmaintenance":9866,"Ġunit":9867,"Ġsaw":9868,"straÃŁe":9869,"Ġdiplomat":9870,"Ġchosen":9871,"Ġcommitments":9872,"ĠHaut":9873,"Ġdestroy":9874,"ĠGriechenland":9875,"Ġ00":9876,"worfen":9877,"Ġzahlt":9878,"Hin":9879,"iefer":9880,"steht":9881,"Ġenor":9882,"programme":9883,"ĠRealitat":9884,"ĠPDF":9885,"ĠTodes":9886,"Ġteilnehmen":9887,"ÑĮ":9888,"reck":9889,"Ġfreie":9890,"enntnisse":9891,"leun":9892,"ĠPeople":9893,"Ġcondemn":9894,"Â«":9895,"ĠVertrie":9896,"ĠBeach":9897,"Ġsteigen":9898,"hnung":9899,"ĠLeistungs":9900,"Ġcandidate":9901,"raume":9902,"Ġneither":9903,"ĠStadte":9904,"Mehr":9905,"vorschlag":9906,"President":9907,"omin":9908,"ĠEastern":9909,"DR":9910,"Ġrightly":9911,"Ġkos":9912,"Ġbegluckw":9913,"iced":9914,"ĠFotos":9915,"Ġhonourable":9916,"ĠHalb":9917,"ĠPalace":9918,"Ġqualitat":9919,"ĠRoh":9920,"Ġinterface":9921,"mittelt":9922,"isierungs":9923,"aschen":9924,"Ġacht":9925,"Ġagency":9926,"Ġpor":9927,"ĠVoraus":9928,"politischen":9929,"Ġbetrachten":9930,"Ġobligations":9931,"nehmern":9932,"ĠVermitt":9933,"wechsel":9934,"Ġprivile":9935,"Ġdefinit":9936,"Ñĭ":9937,"Ġoutcome":9938,"Ben":9939,"ĠConstitution":9940,"bald":9941,"Ġachieving":9942,"Ġbalcon":9943,"ĠGreek":9944,"ĠMonat":9945,"Me":9946,"inning":9947,"ĠAustrian":9948,"uters":9949,"imit":9950,"idung":9951,"lichem":9952,"ĠUnabhangigkeit":9953,"Ġchemical":9954,"mm":9955,"08":9956,"ĠWechsel":9957,"ventions":9958,"EW":9959,"alty":9960,"Ġï¿½":9961,"Ġschone":9962,"Ġambitious":9963,"Ġspeziellen":9964,"era":9965,"ĠLizenz":9966,"ichtete":9967,"zur":9968,"ĠInstitute":9969,"ĠBudget":9970,"Fre":9971,"Ġdient":9972,"ĠAber":9973,"Ġlangen":9974,"ĠIC":9975,"Ġcolour":9976,"Ġsched":9977,"Ġroute":9978,"sequently":9979,"holung":9980,"ĠPresse":9981,"Ġoutstanding":9982,"Ġobviously":9983,"ancy":9984,"apers":9985,"fugt":9986,"fahig":9987,"jet":9988,"look":9989,"Ġsituations":9990,"asters":9991,"Ġrock":9992,".-":9993,"Ġreve":9994,"UT":9995,"Ġgelungen":9996,"ĠVerstandnis":9997,"orial":9998,"Ġconstantly":9999,"ĠLive":10000,"ĠMond":10001,"500":10002,"ĠPa":10003,"Ġelection":10004,"Ġspa":10005,"Ġweight":10006,"wortet":10007,"Ġfestge":10008,"here":10009,"Ġanaly":10010,"Ġphotos":10011,"Ġflight":10012,"Ġstarke":10013,"Ġcolleague":10014,"zi":10015,"ĠAktionen":10016,"governmental":10017,"iov":10018,"versorgung":10019,"Ġfiscal":10020,"ey":10021,"ĠThey":10022,"ĠLatin":10023,"Ġorganised":10024,"ĠKurs":10025,"Ġturk":10026,"istry":10027,"Ġlimits":10028,"Ġdaraus":10029,"Ġkorre":10030,"wachst":10031,"endum":10032,"Ġupdate":10033,"ĠTrek":10034,"arth":10035,"ĠNutzer":10036,"Ġpatent":10037,"Ġsensitive":10038,"ĠErklarungen":10039,"ĠControl":10040,"Ġtitle":10041,"ĠFitness":10042,"Ġsell":10043,"klang":10044,"ĠEreignisse":10045,"Ġerfre":10046,"Ġgeoffnet":10047,"Ġcontinuing":10048,"Ġcorrespond":10049,"Ġminute":10050,"Ġpayments":10051,"Ġbritischen":10052,"ĠKarten":10053,"Ġsomeone":10054,"Ġsurrounded":10055,"abilities":10056,"ĠECU":10057,"Ġrevolution":10058,"ategorie":10059,"Ġpred":10060,"Ġvergleich":10061,"Ġvehicle":10062,"anspr":10063,"Ġelected":10064,"Ġdistin":10065,"Angesichts":10066,"elbe":10067,"Ġnar":10068,"eind":10069,"Ġcompat":10070,"iertes":10071,"AB":10072,"Ġumwelt":10073,"ĠSuden":10074,"Ġsem":10075,"Ġequality":10076,"ĠZwischen":10077,"isure":10078,"Meiner":10079,"ĠErde":10080,"ela":10081,"Ġinformiert":10082,"Klicken":10083,"Ġzugang":10084,"Ġstore":10085,"ĠGre":10086,"Ġyesterday":10087,"ĠMartin":10088,"Ġasking":10089,"Ġbenach":10090,"Ġsuccessfully":10091,"PC":10092,"ĠMarken":10093,"ĠZahlen":10094,"ifications":10095,"management":10096,"ĠAusland":10097,"ĠMitteln":10098,"39":10099,"ĠAnlage":10100,"setzungen":10101,"ĠCH":10102,"Ġ(\"":10103,"Ġgoals":10104,"ipping":10105,"Ġreject":10106,"Ġcontents":10107,"ĠUnterkunft":10108,"ĠForeign":10109,"NL":10110,"Ġwealth":10111,"Ġubrig":10112,"usse":10113,"Ġbound":10114,"ĠKopf":10115,"ĠGefuhl":10116,"Ġaccessible":10117,"ĠBahnhof":10118,"oret":10119,"iegen":10120,"ĠResort":10121,"urm":10122,"auso":10123,"Ġorganization":10124,"ohnt":10125,"reitung":10126,"ĠNiveau":10127,"ĠSummit":10128,"handels":10129,"ismen":10130,"ĠCompany":10131,"Ġcheap":10132,"ombination":10133,"ĠFraktionen":10134,"Ġcategory":10135,"ĠEmpfehlungen":10136,"Ġideale":10137,"Ġexpenditure":10138,"ĠAgency":10139,"erry":10140,"ception":10141,"apter":10142,"enswert":10143,"ĠWirkung":10144,"reitet":10145,"Ġsorgfalt":10146,"Ġexklus":10147,"Ġsurv":10148,"Ġrecommendations":10149,"Ġmassive":10150,"Nevertheless":10151,"knup":10152,"ript":10153,"det":10154,"tellect":10155,"asen":10156,"Ġaircraft":10157,"EO":10158,"ĠIndien":10159,"Ġhauptsachlich":10160,"Ġguter":10161,"ĠBotschaft":10162,"Ġrace":10163,"ĠTHE":10164,"09":10165,"ĠSach":10166,"Ġphilosoph":10167,"Ġspecies":10168,"Ġrig":10169,"Ġuberein":10170,"ĠProgramms":10171,"Ġeinverstanden":10172,"Ġ48":10173,"ĠAktion":10174,"Ġallgemeine":10175,"\")":10176,"Ġphysical":10177,"Ġrasch":10178,"arlament":10179,"Ġindependence":10180,"Ġmittl":10181,"cast":10182,"ĠReich":10183,"ĠHoffnung":10184,"rent":10185,"Ġbalanced":10186,"ĠArchitektur":10187,"ĠAgentur":10188,"Ġerhoht":10189,"ĠEmiss":10190,"ĠDimension":10191,"Ġlabor":10192,"ĠID":10193,"Ġgehalten":10194,"ĠCroat":10195,"ĠFarben":10196,"comp":10197,"Gleichzeitig":10198,"Ġgrie":10199,"Ġbeachten":10200,"ĠStudien":10201,"Ġsatellite":10202,"Ġap":10203,"Another":10204,"Ġtreten":10205,"Ġacts":10206,"bett":10207,"imp":10208,"Ġgeschieht":10209,"Ġmerely":10210,"Ġlegitim":10211,"Ġwirksam":10212,"unehm":10213,"Ġausland":10214,"Ġtargets":10215,"niture":10216,"rant":10217,"wers":10218,"artei":10219,"Ġfestgestellt":10220,"Ġintention":10221,"Weit":10222,"Ġmoglichen":10223,"ĠauÃŁerord":10224,"ĠDatenschutz":10225,"Ġniemand":10226,"Ġfurnished":10227,"Ġcompr":10228,"Ġconsists":10229,"ĠMichael":10230,"ĠGebiete":10231,"ĠPo":10232,"Ġmanchmal":10233,"Ġpreserv":10234,"Ġlake":10235,"ĠFront":10236,"otten":10237,"ĠBill":10238,"ĠWiederauf":10239,"Gem":10240,"Ġunderg":10241,"ĠGedanken":10242,"Ġmittels":10243,"Ġeinzigen":10244,"Ġcontained":10245,"ĠVoraussetzungen":10246,"Ġherzlich":10247,"ĠIII":10248,"Ġcommunities":10249,"ĠBeihilfen":10250,"ĠBack":10251,"ĠOut":10252,"Ġchanging":10253,"Ġkaufen":10254,"Ġcontemporary":10255,"ĠGegenteil":10256,"ĠFert":10257,"ĠFeld":10258,"Ġjungsten":10259,"Ġapproximately":10260,"ĠLinks":10261,"ĠWin":10262,"Ġjungen":10263,"ĠOpp":10264,"ĠSprach":10265,"Ġunternommen":10266,"Ġdete":10267,"Ġspricht":10268,"Ġdynamic":10269,"Ġsage":10270,"ĠArbeitsmarkt":10271,"Ġlandscape":10272,"ĠBla":10273,"mo":10274,"Ġwaiting":10275,"Ġexpos":10276,"Ġprevention":10277,"lingen":10278,"reis":10279,"ĠDay":10280,"ĠWhite":10281,"06":10282,"Ġdig":10283,"Ġpun":10284,"Fe":10285,"Ġenhan":10286,"Ġther":10287,"Ġsobald":10288,"Ġvorgeschlagenen":10289,"ĠLord":10290,"Ġputting":10291,"ĠPool":10292,"ĠStudio":10293,"Over":10294,"ickt":10295,"ĠZusatz":10296,"ĠSyn":10297,"ĠRisiken":10298,"ansion":10299,"ĠGrundrechte":10300,"Ġparticipants":10301,"Ġdisposal":10302,"Ġgrounds":10303,"ĠGarden":10304,"ĠPalestinian":10305,"zil":10306,"Ġsmaller":10307,"Ġglad":10308,"Ġmechanism":10309,"ĠKontroll":10310,"Ġsubmit":10311,"irk":10312,"odurch":10313,"Ġbars":10314,"()":10315,"ĠGlas":10316,"Ġschneller":10317,"Ġprospect":10318,"Ġerfordert":10319,"ĠAndre":10320,"Ġubernommen":10321,"Ġbringing":10322,"wegs":10323,"ĠVorteil":10324,"ĠRob":10325,"iene":10326,"ĠAls":10327,"ĠZoll":10328,"Ġswe":10329,"ĠErwart":10330,"istungs":10331,"ĠSchm":10332,"ailand":10333,"endung":10334,"Ġpointed":10335,"Ġleads":10336,"Ġnationaler":10337,"abled":10338,"Ġslight":10339,"inent":10340,"ĠAlter":10341,"Ġquot":10342,"Ġguaranteed":10343,"Ġfraud":10344,"Ġklaren":10345,"ĠRelig":10346,"Ġgewiss":10347,"ĠSchloss":10348,"Ġresulting":10349,"Ġplanned":10350,"ĠAct":10351,"Ġconvention":10352,"Ġselten":10353,"ĠMitglieds":10354,"TP":10355,"Ġpersonliche":10356,"ĠZurich":10357,"tehen":10358,"ĠGewahr":10359,"vereign":10360,"Ġwebs":10361,"Ġcool":10362,"Ġdamals":10363,"Ġblog":10364,"Ġteilen":10365,"Ġsovereign":10366,"ĠAlban":10367,"ĠMitgliedern":10368,"ĠSquare":10369,"2008":10370,"ulating":10371,"Ġfactor":10372,"Mar":10373,"ĠMain":10374,"ĠTemp":10375,"Ġwrite":10376,"Ġoperate":10377,"Ġresponsibilities":10378,"hel":10379,"37":10380,"ieb":10381,"Ġzunehm":10382,"ĠUl":10383,"Ġschla":10384,"trib":10385,"ĠregelmaÃŁig":10386,"ĠGaz":10387,"Ġseeking":10388,"Ġvieler":10389,"ĠMarketing":10390,"Ġcount":10391,"Ġcauses":10392,"Ġweg":10393,"ĠAlliance":10394,"Ġpill":10395,"Ġcapable":10396,"Ġzugleich":10397,"Ġstrengthening":10398,"akete":10399,"]].":10400,"Ġacceptable":10401,"Ġanbieten":10402,"Ġbetroffenen":10403,"rittens":10404,"ĠGreat":10405,"Ġandererseits":10406,"Ġwodurch":10407,"Ġberecht":10408,"Ġbeob":10409,"Ġconclude":10410,"cco":10411,"Ġfamiliar":10412,"produktion":10413,"Ġpleasure":10414,"annung":10415,"arium":10416,"going":10417,"vely":10418,"ĠHauptstadt":10419,"Ġnachhaltige":10420,"ĠDor":10421,"ermaÃŁen":10422,"ints":10423,"ausende":10424,"Ġmedizin":10425,"ĠManager":10426,"Ġband":10427,"nd":10428,"Ġcollect":10429,"Ġbrings":10430,"Ġpraktisch":10431,"ĠPhase":10432,"ĠFriedens":10433,"Ġlag":10434,"ĠQualitats":10435,"fa":10436,"Ġexamples":10437,"richtlinie":10438,"Ġfashion":10439,"ĠAnn":10440,"istenz":10441,"ĠIsland":10442,"Ġvorschlagen":10443,"Ġregistration":10444,"Ġmanufacturing":10445,"gesellschaften":10446,"ĠBeob":10447,"Ġeinzus":10448,"ĠChamber":10449,"His":10450,"Ġvalu":10451,"Ġgemeinschaft":10452,"Ġbewegen":10453,"weiten":10454,"ifellos":10455,"Are":10456,"ĠAuch":10457,"ĠDeutsche":10458,"Vielen":10459,"esh":10460,"Ġrecovery":10461,"place":10462,"Ġletter":10463,"ĠNiederlan":10464,"ĠBestandteil":10465,"Yet":10466,"Ġtoler":10467,"ĠFischer":10468,"ĠMEP":10469,"Ġidentity":10470,"anges":10471,"cling":10472,"Ġschn":10473,"Ġbeschaftigt":10474,"ĠFire":10475,"glieder":10476,"ummern":10477,"ĠManner":10478,"Ġlov":10479,"Ġassum":10480,"Ġspaces":10481,"Ġnearly":10482,"Ġexplain":10483,"unsten":10484,"SV":10485,"ĠTeilnahme":10486,"Ġassociation":10487,"Ġsurpr":10488,"Ġsafeguard":10489,"Ġzunehmend":10490,"Ġzone":10491,"iring":10492,"Ġargument":10493,"ĠSlow":10494,"ĠLiberalisierung":10495,"inos":10496,"ĠErhohung":10497,"Ġtherm":10498,"ierend":10499,"ĠPrufung":10500,"Ġerneuer":10501,"Ġsichern":10502,"ĠHalfte":10503,"Ġdecades":10504,"ĠJournal":10505,"ĠTouristen":10506,"iquid":10507,"ĠTreffen":10508,"Ġfuel":10509,"ĠLaufe":10510,"Ġwichtigste":10511,"Ġkleiner":10512,"konom":10513,"ĠJac":10514,"ĠRuman":10515,"ablen":10516,"ĠLandschaft":10517,"Ġelegan":10518,"Ġgovernance":10519,"Ġtraditionellen":10520,"Ġmaxim":10521,"Ġmultiple":10522,"iot":10523,"Ġadequate":10524,"Inter":10525,"ĠExperten":10526,"Ġirgende":10527,"ĠRules":10528,"Ġ1992":10529,"Ġincorpor":10530,"icon":10531,"gg":10532,"Ġproportion":10533,"ĠBan":10534,"ocal":10535,"zwungen":10536,"Ġpassword":10537,"Ġsiehe":10538,"eshalb":10539,"ĠApparte":10540,"Ġsteel":10541,"ĠGesam":10542,"gin":10543,"Ġlau":10544,"issens":10545,"Ġrequested":10546,"ĠEffizienz":10547,"Ġgrammat":10548,"systeme":10549,"Ġsieben":10550,"gestellten":10551,"ĠPolitiker":10552,"Ġconsensus":10553,"Ġtrend":10554,"Ġnations":10555,"ĠPflicht":10556,"setzt":10557,"ĠAkte":10558,"vertrag":10559,"Ġsouthern":10560,"ĠBei":10561,"organisationen":10562,"ĠPeter":10563,"Ġattacks":10564,"ĠEN":10565,"Ġsets":10566,"Ġpatients":10567,"ĠFuhrung":10568,"Ġna":10569,"ĠHaushaltsplan":10570,"ĠKoordinierung":10571,"Ġhyd":10572,"ktop":10573,"Ġthereby":10574,"Ġtruth":10575,"Ġbesseren":10576,"odes":10577,"Ġtran":10578,"Ġversions":10579,"Ġsec":10580,"ĠRub":10581,"station":10582,"Ġvulner":10583,"Ġdivid":10584,"Ġdiscussing":10585,"ĠInternationalen":10586,"uster":10587,"ĠNichtraucher":10588,"Ġliability":10589,"Ġattend":10590,"ĠOS":10591,"Ġaddressed":10592,"Ġvielfalt":10593,"Ġdriving":10594,"Ġtesting":10595,"ĠCypr":10596,"Ġhergestellt":10597,"selben":10598,"kan":10599,"ĠVe":10600,"Ġseitens":10601,"legte":10602,"ĠFax":10603,"ror":10604,"Go":10605,"ĠStor":10606,"Ġindustries":10607,"Ġfallt":10608,"ruction":10609,"Ġconsolid":10610,"Ġkinds":10611,"Ġprimary":10612,"otenzial":10613,"ĠJoh":10614,"ĠAbsicht":10615,"ĠUberprufung":10616,"Ġrepresentative":10617,"Ġexplan":10618,"ĠNorden":10619,"Ġprimarily":10620,"Ġdeutsche":10621,"aces":10622,"Ġgrenzuberschreit":10623,"AV":10624,"ĠPublik":10625,"Ġweiteres":10626,"Med":10627,"ĠZimmern":10628,"Ġ250":10629,"Ġinhab":10630,"Ġpreviously":10631,"ĠTeilen":10632,"aks":10633,"ĠBildungs":10634,"ĠSupport":10635,"Ġrespekt":10636,"Ġdiskutiert":10637,"ĠKaffe":10638,"ĠKorea":10639,"ĠJo":10640,"Ġafford":10641,"ĠCom":10642,"ĠStreit":10643,"ĠCam":10644,"ĠAusnahme":10645,"Ġschools":10646,"ĠRiver":10647,"Ġkurzlich":10648,"Ġcopy":10649,"Ð´":10650,"ĠGasten":10651,"lebt":10652,"abl":10653,"ĠKlimaanlage":10654,"Ġreinfor":10655,"Ġtalks":10656,"ĠGent":10657,"ĠÐ¿":10658,"Ġmaster":10659,"testen":10660,"UM":10661,"phrase":10662,"enture":10663,"ĠMethode":10664,"Ġdisch":10665,"itten":10666,"ĠSyr":10667,"Ġexpensive":10668,"ĠmaÃŁ":10669,"Ġbegann":10670,"ampagne":10671,"Sm":10672,"ĠAR":10673,"annes":10674,"Ġjemand":10675,"Ġmel":10676,"Ġjunge":10677,"Ġfalsch":10678,"Wor":10679,"Thus":10680,"Ġphase":10681,"ĠJavaScript":10682,"Ġaktual":10683,"Ġremove":10684,"Ġumfass":10685,"Ġconnect":10686,"sid":10687,"Ġblue":10688,"Ġevaluation":10689,"urde":10690,"ÅĤ":10691,"ĠInseln":10692,"Ġkontext":10693,"urze":10694,"ĠMethoden":10695,"ĠRoyal":10696,"TR":10697,"Ġmund":10698,"ĠTyp":10699,"Ġverteid":10700,"Room":10701,"Ġauthent":10702,"ĠBosn":10703,"Ġfinde":10704,"ĠDiskriminierung":10705,"zeÃŁ":10706,"lesen":10707,"Sol":10708,"ĠMerk":10709,"iling":10710,"ĠSchne":10711,"nahm":10712,"km":10713,"ĠBlog":10714,"ĠCharter":10715,"Ġreagieren":10716,"bereiche":10717,"Christ":10718,"Ġorders":10719,"ĠModern":10720,"Ġglobale":10721,"sein":10722,"ĠDutch":10723,"Che":10724,"Ġeight":10725,"ĠRos":10726,"down":10727,"Ġwillkommen":10728,"Ġturned":10729,"ĠStadtzentrum":10730,"Ġfif":10731,"ĠDach":10732,"ĠChem":10733,"Ġakzeptiert":10734,"Ġinstruct":10735,"Jeder":10736,"Ġeinzelne":10737,"lebnis":10738,"ĠLag":10739,"Ġrot":10740,"Ġgewahlt":10741,"ĠWillen":10742,"atlant":10743,"ĠSchool":10744,"Ġbio":10745,"Ġdemokratische":10746,"ĠVeranstaltungen":10747,"border":10748,"usche":10749,"ĠCarl":10750,"Ġdealt":10751,"Ġoffentlich":10752,"Ġlandlichen":10753,"rachte":10754,"Ġdetermined":10755,"tellectual":10756,"iern":10757,"zust":10758,"entscheid":10759,"Ġmail":10760,"Ġjournal":10761,"Ġaudio":10762,"iser":10763,"ady":10764,"Ġzunehmen":10765,"ungsverfahren":10766,"Ġflow":10767,"El":10768,"Ġbon":10769,"Ġnamed":10770,"Ġfried":10771,"ĠAngriff":10772,"Ġdelivered":10773,"Ġsinnvoll":10774,"TER":10775,"Ġdiesbe":10776,"ĠZuf":10777,"metho":10778,"Ġwaters":10779,"Vert":10780,"Ġma":10781,"Ġnation":10782,"ĠVerhaltnis":10783,"Ġprepare":10784,"Ġbehandeln":10785,"Ġmutual":10786,"Ġbran":10787,"hop":10788,"atre":10789,"sprach":10790,"strategie":10791,"Ġbooks":10792,"lege":10793,"new":10794,"Ġcorner":10795,"zuge":10796,"ĠQue":10797,"Ġopposite":10798,"da":10799,"Ġangeht":10800,"Ġberuhmten":10801,"Ġanerkannt":10802,"Ġbere":10803,"Ġbetont":10804,"Ġextreme":10805,"ĠRevolution":10806,"ĠProdi":10807,"Sehr":10808,"Par":10809,"ĠEltern":10810,"ported":10811,"ained":10812,"ĠPic":10813,"ĠKlar":10814,"ĠFirst":10815,"ciliation":10816,"Ġamongst":10817,"ĠOrdnung":10818,"Ġcook":10819,"iry":10820,"Ġverstarkt":10821,"ĠArm":10822,"cont":10823,"krafte":10824,"igern":10825,"gypt":10826,"48":10827,"ĠAns":10828,"ĠGesetzgebung":10829,"Ġpositiven":10830,"ĠFahigkeit":10831,"Ġverabschied":10832,"Ġnochmals":10833,"cluding":10834,"Ġgros":10835,"Ġdoll":10836,"ouver":10837,"Ġdiversity":10838,"ĠBerucksicht":10839,"Ġsystemat":10840,"ĠDienstleistungs":10841,"ĠWeiÃŁ":10842,"ĠAnpassung":10843,"fel":10844,"Ġechte":10845,"ĠProvin":10846,"Ġmechanisms":10847,"ĠFormular":10848,"Ġunanim":10849,"Ġbegonnen":10850,"ĠSweden":10851,"Ġvorbe":10852,"Ġonto":10853,"Ġgriech":10854,"Ġimper":10855,"ĠEinklang":10856,"uttle":10857,"ĠDublin":10858,"Ste":10859,"Ġdritten":10860,"Ġtechnological":10861,"ĠAnliegen":10862,"Ġinvestments":10863,"Ġbelong":10864,"ĠEinwander":10865,"Ġdry":10866,"Ġfuhrenden":10867,"Ġsnow":10868,"BS":10869,"Ġterritorial":10870,"Ġgepr":10871,"Ġqualified":10872,"ĠAutor":10873,"Ġgespe":10874,"31":10875,"Ġwall":10876,"Those":10877,"Ġsicherstellen":10878,"Ġaccounts":10879,"Ġmanufacturers":10880,"Ġthre":10881,"ĠUmstanden":10882,"ĠMat":10883,"licit":10884,"uj":10885,"Ġvielmehr":10886,"sec":10887,"uminium":10888,"ĠVorbereitung":10889,"iana":10890,"Ġfeeling":10891,"Ġurge":10892,"ĠAth":10893,"Ġpension":10894,"ĠReaktion":10895,"EF":10896,"Ġumgeben":10897,"ĠVerbesser":10898,"Ġconsultation":10899,"absicht":10900,"Ġdiverse":10901,"Ġrepeated":10902,"Ġleiden":10903,"ĠGluck":10904,"ĠGraf":10905,"ĠKarl":10906,"Ġgesellschaft":10907,"ĠUbern":10908,"grundlage":10909,"ĠBerucksichtigung":10910,"ĠTiere":10911,"Ġleadership":10912,"Ġgrand":10913,"ĠStunde":10914,"akers":10915,"ags":10916,"ĠOF":10917,"Ġmoved":10918,"Ġparallel":10919,"Ġskin":10920,"Ġbureau":10921,"ĠRomania":10922,"ĠWachstums":10923,"gence":10924,"ĠData":10925,"Ġverlieren":10926,"ĠKong":10927,"Ġcharming":10928,"jection":10929,"mlich":10930,"ĠPras":10931,"Gro":10932,"Ġnoise":10933,"ĠMinderheiten":10934,"ĠAdmin":10935,"Ġgewahrt":10936,"stoffen":10937,"bereitet":10938,"Ġattemp":10939,"Ġfand":10940,"Ġpiece":10941,"Ġmarked":10942,"fehlung":10943,"ĠFreizeit":10944,"Us":10945,"âĢĶ":10946,"ĠMinutes":10947,"venue":10948,"Ġzuverlass":10949,"Ġuberzeugen":10950,"Ġattitude":10951,"Ġehemaligen":10952,"folgerungen":10953,"iary":10954,"essor":10955,"Ġschlecht":10956,"uy":10957,"SA":10958,"ĠValle":10959,"zure":10960,"ĠRepr":10961,"Ġmeist":10962,"Ġspot":10963,"ĠChamp":10964,"fluge":10965,"Ġ800":10966,"ĠCa":10967,"Ġzustimmen":10968,"ĠKlimawandel":10969,"meister":10970,"folio":10971,"termine":10972,"Ġrejected":10973,"Ġberuf":10974,"Ġergriffen":10975,"sprechen":10976,"Ġderzeitigen":10977,"cell":10978,"Ġexistence":10979,"Ġhall":10980,"Ġimprovements":10981,"Ġruns":10982,"jahrige":10983,"ĠEinkaufs":10984,"ĠEth":10985,"klarung":10986,"fertigt":10987,"Ġbedarf":10988,"Ġexperiences":10989,"Ġwhe":10990,"ĠBM":10991,"Ġknows":10992,"ĠUnterschiede":10993,"ieties":10994,"Ġeye":10995,"orgnis":10996,"Ġcompliance":10997,"Ġ>":10998,"Ġinten":10999,"ĠTai":11000,"Ġhelping":11001,"Ġreply":11002,"ĠZahlungs":11003,"markte":11004,"izont":11005,"Ġvorgenommen":11006,"ĠGrenze":11007,"utr":11008,"2003":11009,"ĠPatent":11010,"Ġheavy":11011,"Ġbefassen":11012,"Ġsignificantly":11013,"berecht":11014,"07":11015,"Ġzuge":11016,"Ġgewisse":11017,"Ġseien":11018,"Ġshape":11019,"igence":11020,"rachten":11021,"wa":11022,"Ġ#":11023,"ĠSonn":11024,"uries":11025,"ĠVision":11026,"Ġwiederum":11027,"Ġlock":11028,"ĠChurch":11029,"ĠFreude":11030,"Ġtransform":11031,"Ġblood":11032,"Programm":11033,"ĠVeroffentlich":11034,"mechan":11035,"igerung":11036,"wood":11037,"ĠEntsp":11038,"Ġstone":11039,"Ġnotig":11040,"Ġbarr":11041,"Ġstreets":11042,"Ġwait":11043,"Ġrequests":11044,"Ġcompetence":11045,"ĠGespra":11046,"2002":11047,"hangen":11048,"oples":11049,"Ġlaut":11050,"ĠDiskussionen":11051,"Ġleisure":11052,"Ġfed":11053,"ikte":11054,"gebracht":11055,"Ġdah":11056,"iform":11057,"Ġarms":11058,"ĠHandeln":11059,"Ġpresentation":11060,"ĠCustom":11061,"ĠVia":11062,"akten":11063,"tracht":11064,"Ġsubsidiar":11065,"Member":11066,"Ġid":11067,"ĠNik":11068,"Ġrecommended":11069,"Ġpermit":11070,"Ġunterschiedlich":11071,"Ġbildet":11072,"ĠKombination":11073,"Ġprint":11074,"Ġkonkreten":11075,"ĠFenster":11076,"reb":11077,"ĠPin":11078,"Ġlauft":11079,"Ġbetreffen":11080,"ĠMilitar":11081,"itime":11082,"Ġstraight":11083,"owned":11084,"ĠPerspekt":11085,"ĠBedroh":11086,"Ġprivacy":11087,"ĠAutob":11088,"Ġlaunched":11089,"Ġpolitisch":11090,"ĠRoom":11091,"Ġexpertise":11092,"Ġlandwirtschaft":11093,"ÑģÑĤ":11094,"Ġtreated":11095,"Ġspeakers":11096,"Ġbirth":11097,",\"":11098,"ikas":11099,"ĠTon":11100,"ispiele":11101,"Ġwelchen":11102,"Ġcm":11103,"Ġangep":11104,"ĠKunde":11105,"Where":11106,"Ġbinding":11107,"ĠPrakt":11108,"lechter":11109,"lause":11110,"ĠErwach":11111,"ĠschlieÃŁen":11112,"Ġconsistent":11113,"heber":11114,"Ġbedrooms":11115,"49":11116,"Ġobligation":11117,"iating":11118,"Located":11119,"Ġgeehr":11120,"Ġdrugs":11121,"entlichen":11122,"ĠFarb":11123,"ĠPflanzen":11124,"Ġswitch":11125,"otte":11126,"Very":11127,"rote":11128,"schaffen":11129,"Ġexpectations":11130,"Ġfelt":11131,"ĠGesetze":11132,"Ġconfigur":11133,"ĠBalt":11134,"Ġlose":11135,"Ġkurzen":11136,"Ġrecognise":11137,"Ġcompensation":11138,"Ġ1993":11139,"ettbewerbs":11140,"Ġ1980":11141,"DS":11142,"Nachdem":11143,"ĠExpress":11144,"dete":11145,"ochen":11146,"Ġkeines":11147,"Ġwebsites":11148,"Ġdestination":11149,"2006":11150,"Ġmini":11151,"Ġsanctions":11152,"Ġunits":11153,"ĠLast":11154,"nes":11155,"Ġparad":11156,"kap":11157,"ĠÎ":11158,"entwurf":11159,"Ġspok":11160,"verse":11161,"ĠBetr":11162,"ĠAdresse":11163,"Ġhervorge":11164,"zubauen":11165,"ĠStrukturfonds":11166,"ĠSwed":11167,"rechten":11168,"ĠFreunde":11169,"ĠAufsicht":11170,"geiz":11171,"vak":11172,"Wo":11173,"Ġsleep":11174,"far":11175,"pat":11176,"ivate":11177,"Ġemphasis":11178,"Rooms":11179,"Ġprosper":11180,"fare":11181,"ĠGrundsatze":11182,"ĠVerfugbarkeit":11183,"Ġfurniture":11184,"istribution":11185,"Ġflat":11186,"Ġdir":11187,"ker":11188,"ĠTheater":11189,"Ġbrowser":11190,"ĠRotary":11191,"Ġdishes":11192,"Ġ600":11193,"ĠKyoto":11194,"ĠUntersuchung":11195,"Ġextension":11196,"Ġbasiert":11197,"ĠUmweltschutz":11198,"Br":11199,"beziehung":11200,"Ġrepresented":11201,"estion":11202,"ĠOld":11203,"ĠFlash":11204,"Ġvess":11205,"Ġengag":11206,"alys":11207,"68":11208,"Gr":11209,"Ġentlang":11210,"ĠSpiele":11211,"Ġoutput":11212,"Ġcomply":11213,"Ġgenauso":11214,"ĠOne":11215,"Ġdefault":11216,"ĠOs":11217,"Ġkompliz":11218,"ĠAllgemeinen":11219,"ĠPruf":11220,"ossen":11221,"ameras":11222,"ĠEigenschaften":11223,"ĠSun":11224,"Ġsprach":11225,"Beim":11226,"tellte":11227,"Ġresolve":11228,"TS":11229,"Ġverlangen":11230,"Ġsod":11231,"Ġsubstances":11232,"Ġapplicable":11233,"Ġabhangig":11234,"GB":11235,"ĠBreakfast":11236,"unktions":11237,"Ġsights":11238,"stance":11239,"Ander":11240,"Ġta":11241,"ĠBru":11242,"ĠKollege":11243,"Ġexists":11244,"Ġfantastic":11245,"ĠTit":11246,"Ġgestern":11247,"Ġrelatively":11248,"MA":11249,"Ġbeiz":11250,"Ġstations":11251,"ichteten":11252,"Ag":11253,"Ġod":11254,"Ġdog":11255,"ĠWesten":11256,"Ġdict":11257,"Ġbezieht":11258,"rain":11259,"Ġproud":11260,"formance":11261,"bahnhof":11262,"ĠVerteidigungs":11263,"Zimmer":11264,"Ġwild":11265,"Ġtrees":11266,"Both":11267,"ĠGrun":11268,"ĠAngebote":11269,"rup":11270,"Ġtrial":11271,"ĠZul":11272,"fullung":11273,"ati":11274,"ani":11275,"Ġdeiner":11276,"Ġolder":11277,"âĢ¢":11278,"Ġcomplet":11279,"schule":11280,"pped":11281,"anks":11282,"Besch":11283,"Ġzeich":11284,"Zunachst":11285,"sprache":11286,"ischung":11287,"ĠSatell":11288,"uds":11289,"Ġoperators":11290,"Ġthor":11291,"Ġentered":11292,"ĠGrad":11293,"ĠJack":11294,"Ġtaxes":11295,"ti":11296,"ĠOur":11297,"ĠArgent":11298,"Ġwichtiges":11299,"Ġkeeping":11300,"Ġhelps":11301,"abling":11302,"ĠHerk":11303,"Ġtrotzdem":11304,"Ġrefugees":11305,"ĠFried":11306,"ĠUrspr":11307,"Ġappreciate":11308,"Ġvast":11309,"Ġreicht":11310,"okument":11311,"Ġrare":11312,"Ġapproval":11313,"Ġerror":11314,"ifall":11315,"what":11316,"Su":11317,"Ġadj":11318,"ĠEnergy":11319,"Ġspezial":11320,"ĠMaÃŁnahme":11321,"ĠDatenbank":11322,"Ġumfassenden":11323,"ĠKuste":11324,"Ġobjects":11325,"iose":11326,"ĠVater":11327,"ĠEnglisch":11328,"Ġlatter":11329,"Ġgeist":11330,"Ġregionale":11331,"Ġarticles":11332,"ĠKranken":11333,"Ġliefern":11334,"Ġabgele":11335,"obe":11336,"Ġemphasise":11337,"ĠGewinn":11338,"Ġtests":11339,"ĠLeitlinien":11340,"zza":11341,"ĠSignal":11342,"stitut":11343,"Bis":11344,"ĠHoll":11345,"Ġfuhrte":11346,"Ġadvantages":11347,"Ġsit":11348,"theit":11349,"Ġcentres":11350,"Ġsamp":11351,"ĠZuge":11352,"ĠDokumente":11353,"ĠMunchen":11354,"Ġdischarge":11355,"Ġsenden":11356,"Ġcold":11357,"ĠLu":11358,"Ġstren":11359,"Ġ37":11360,"ĠKommunikations":11361,"Ġaffairs":11362,"Ġtemperature":11363,"ĠUnterschied":11364,"Ġziemlich":11365,"Ġwhatever":11366,"Ġengineering":11367,"Ġitalienischen":11368,"oli":11369,"ĠGl":11370,"ĠKreat":11371,"Ġye":11372,"ĠKooperation":11373,"ĠAntworten":11374,"Apart":11375,"Ġresidence":11376,"Ġfavor":11377,"unfte":11378,"ĠSchwerpunkt":11379,"OP":11380,"antly":11381,"Ġarrangements":11382,"Ġwhilst":11383,"Ġbekannten":11384,"ede":11385,"ĠAustausch":11386,"ĠOriginal":11387,"dis":11388,"ĠClass":11389,"maschinen":11390,"Ġwenden":11391,"ĠBio":11392,"usal":11393,"Ġentre":11394,"Ġdelegation":11395,"ilding":11396,"icherungs":11397,"raften":11398,"ĠDetails":11399,"ĠEgypt":11400,"ĠDefinition":11401,"ĠPaper":11402,"Ġestim":11403,"ĠSchulden":11404,"Ġobst":11405,"ĠBedenken":11406,"Ġrespective":11407,"Service":11408,"Ġcovers":11409,"Ġplug":11410,"Ġunmittelbar":11411,"pol":11412,"ĠVerbrechen":11413,"Ġhelped":11414,"ĠPremier":11415,"ĠMut":11416,"ĠauÃŁergewohn":11417,"Ġhappens":11418,"Ġdinner":11419,"eting":11420,"fit":11421,"ĠRich":11422,"Ġtexts":11423,"hard":11424,"ĠWahrheit":11425,"Ġinvolving":11426,"Ġentertainment":11427,"Ġfinding":11428,"ĠMinisters":11429,"Ġerhaltlich":11430,"Ebenso":11431,"car":11432,"teen":11433,"ĠAktionsplan":11434,"reds":11435,"ĠDrit":11436,"ĠBrazil":11437,"ĠBewegung":11438,"Ġpersonally":11439,"Ġsuffering":11440,"Ġhistorische":11441,"ĠMunich":11442,"material":11443,"netz":11444,"behorden":11445,"Ġpeoples":11446,"ĠFremden":11447,"Ġfoll":11448,"Ġgeraum":11449,"ĠObama":11450,",âĢĿ":11451,"azitat":11452,"ichtig":11453,"Ġcomplic":11454,"Ġ120":11455,"Dr":11456,"ĠSD":11457,"stes":11458,"Ġpoliticians":11459,"ĠJes":11460,"Ġhohere":11461,"ĠZugriff":11462,"ĠHong":11463,"ĠWith":11464,"Ġdisaster":11465,"ĠBesitz":11466,"oler":11467,"areness":11468,"Stand":11469,"ĠAmts":11470,"ĠVertrage":11471,"Ġdanger":11472,"Ġcloth":11473,"Ġutil":11474,"Ġnaturally":11475,"Ġexclusively":11476,"uhle":11477,"Ġthorough":11478,"weite":11479,"inations":11480,"Ġreichen":11481,"ĠRock":11482,"ĠLou":11483,"Ġerweitert":11484,"vec":11485,"uropaischen":11486,"Ġbetragt":11487,"Thanks":11488,"ĠSanktionen":11489,"andon":11490,"Ġvaluable":11491,"Ġtours":11492,"ĠUser":11493,"ĠInde":11494,"amerika":11495,"Ġeroffnet":11496,"Ġentspannen":11497,"Ġbeschrieben":11498,"Despite":11499,"Ġkommun":11500,"ĠAre":11501,"Ġdiseases":11502,"wing":11503,"rande":11504,"Restaurant":11505,"Find":11506,"ĠKonsequ":11507,"Ġengl":11508,"Ġspectac":11509,"ĠSchule":11510,"quellen":11511,"ĠStrategien":11512,"uckt":11513,"Ġrecognised":11514,"erten":11515,"gelassen":11516,"west":11517,"Ġgult":11518,"ĠShe":11519,"Ġgather":11520,"ugt":11521,"Ġspring":11522,"ĠPlaza":11523,"Ġzusatzlichen":11524,"ĠTibet":11525,"Ġmuseum":11526,"Star":11527,"Ġintend":11528,"Ġweather":11529,"ĠBeweis":11530,"ĠStrategy":11531,"Weitere":11532,"ĠLaw":11533,"hi":11534,"Ġbreat":11535,"Ġweltweiten":11536,"kurs":11537,"Ġstrugg":11538,"ĠAngel":11539,"ĠLandwirte":11540,"ĠAqu":11541,"Ġopposed":11542,"Seine":11543,"ĠBerufs":11544,"Ġkunftig":11545,"isory":11546,"ĠNachfrage":11547,"service":11548,"ĠGM":11549,"Ġsoft":11550,"neter":11551,"Ġjourney":11552,"baut":11553,"ĠInc":11554,"flachen":11555,"Ġthreaten":11556,"auschen":11557,"Ġerscheinen":11558,"ulted":11559,"Ġentdecken":11560,"Ġmobility":11561,"Ġkoordin":11562,"ĠGesicht":11563,"Ġconfirmed":11564,"Ġintellectual":11565,"Ġfill":11566,"stieg":11567,"Ġfirstly":11568,"Ġeigent":11569,"class":11570,"ingesch":11571,"ĠPlayer":11572,"Ġgrundlegenden":11573,"ĠDelegation":11574,"rustung":11575,"market":11576,"Ġpick":11577,"ĠTechnology":11578,"ieben":11579,"griffe":11580,"Ġdramat":11581,"Ġoutdoor":11582,"Ġschonsten":11583,"ĠFahrzeug":11584,"uens":11585,"kommt":11586,"Ġhostels":11587,"iva":11588,"essene":11589,"alta":11590,"zin":11591,"Ġkurzem":11592,"ĠEG":11593,"Ġsolve":11594,"ĠFinancial":11595,"region":11596,"ĠAmerika":11597,"ufuhren":11598,"ilet":11599,"ĠSound":11600,"Ġgirl":11601,"Ġchain":11602,"Ġfigure":11603,"erin":11604,"idden":11605,"Ġschwierigen":11606,"Ġrepeat":11607,"Ġrenewable":11608,"Ġinteressiert":11609,"Ġconserv":11610,"ĠPop":11611,"tragung":11612,"ĠErwartungen":11613,"ĠPress":11614,"Ġobtained":11615,"hung":11616,"onders":11617,"Note":11618,"Ġdans":11619,"Ġminim":11620,"aal":11621,"Ġsofern":11622,"chron":11623,"ucher":11624,"ronom":11625,"Ġmillions":11626,"Ġ38":11627,"Ġvoller":11628,"ichtbar":11629,"ikes":11630,"Ġreserve":11631,"ĠWork":11632,"uing":11633,"cles":11634,"Ġzuruckge":11635,"ĠBerichterstat":11636,"ĠMaterialien":11637,"ĠUngleich":11638,"Ġfaced":11639,"ĠWirklichkeit":11640,"Ġexceptional":11641,"ĠCr":11642,"Aufgrund":11643,"ĠMassen":11644,"Ġcombating":11645,"Ġwesentliche":11646,"ĠMittelpunkt":11647,"ventionen":11648,"ĠSuite":11649,"Ġdetermine":11650,"Ġ1000":11651,"CS":11652,"spruchs":11653,"Ġbesitzen":11654,"Ġlaufen":11655,"bauen":11656,"Ġdiscovered":11657,"OW":11658,"Ġoffices":11659,"Ġpassengers":11660,"azine":11661,"Ġeigenes":11662,"wendungen":11663,"Ġinvolvement":11664,"Ġoffnen":11665,"Ġjahrlich":11666,"55":11667,"ĠUmgang":11668,"Ġdirectives":11669,"Ġlooks":11670,"ĠSwedish":11671,"inken":11672,"Ġlargely":11673,"Ġkulturelle":11674,"Ġdirekte":11675,"Ġhilft":11676,"Vom":11677,"ĠHindern":11678,"actory":11679,"bek":11680,"ĠStudie":11681,"Ġbedeuten":11682,"Ġobstac":11683,"ĠHeiz":11684,"Lin":11685,"prinzip":11686,"Ġzweifellos":11687,"Ġgeschrieben":11688,"Ġniemals":11689,"ĠFer":11690,"Ġcreative":11691,"Mod":11692,"Ġpush":11693,"erungen":11694,"Ġeinerseits":11695,"ĠEssen":11696,"hme":11697,"ĠAmbiente":11698,"Ġnaturlichen":11699,"ĠRadio":11700,"ĠEisenbahn":11701,"Ġweshalb":11702,"ĠBlock":11703,"ĠEmpfehlung":11704,"Aut":11705,"dessen":11706,"Ġserves":11707,"ĠAgrarpolitik":11708,"handelt":11709,"ĠMonte":11710,"Ġhervorragende":11711,"Ġdurfte":11712,"Ġbureauc":11713,"ĠNachrichten":11714,"iosen":11715,"ĠMach":11716,"oni":11717,"Ġverandert":11718,"ecutive":11719,"zut":11720,"Ġprotecting":11721,"ĠFerienw":11722,"Ġcouple":11723,"ĠBadezimmer":11724,"Ġenthus":11725,"Ġeyes":11726,"ĠMorgen":11727,"Ġimpressive":11728,"lieben":11729,"ĠEntwicklungslandern":11730,"abwe":11731,"ĠStudenten":11732,"Ġausgezeichnete":11733,"ĠMaster":11734,"Ġtreaty":11735,"arat":11736,"dire":11737,"Ġkombin":11738,"liefert":11739,"Ġinzwischen":11740,"Ġleaving":11741,"Ġamounts":11742,"gesundheit":11743,"Ġerganz":11744,"reuung":11745,"ĠWas":11746,"Ġzuerst":11747,"Ġconstructive":11748,"Ġinteressant":11749,"Ġremoved":11750,"Ġofficials":11751,"ĠauÃŁen":11752,"ĠKandidaten":11753,"gange":11754,"legungen":11755,"icip":11756,"umping":11757,"trieben":11758,"ml":11759,"Ġinf":11760,"ĠKrie":11761,"Ġneuesten":11762,"Cl":11763,"ogra":11764,"finanz":11765,"ĠTrag":11766,"Ġequally":11767,"Ġautomatic":11768,"ĠGeschmack":11769,"Ġbemuht":11770,"nor":11771,"Ġcriticism":11772,"ĠKategorie":11773,"ĠErinner":11774,"ĠTemperatur":11775,"ĠLas":11776,"ĠDirector":11777,"ĠHof":11778,"Ġverstand":11779,"Ġexem":11780,"ĠProced":11781,"Ġincreases":11782,"Ġstrategies":11783,"Zwe":11784,"Third":11785,"weisung":11786,"ĠDavid":11787,"Ġreden":11788,"Ġstattf":11789,"ĠSkype":11790,"Ġhappening":11791,"Ġtemporary":11792,"Ġnewly":11793,"hauser":11794,"Ġcommunications":11795,"Ġorganizations":11796,"lingt":11797,"tedly":11798,"Enjoy":11799,"Ġcontributions":11800,"Ġincent":11801,"adow":11802,"institution":11803,"schuld":11804,"Bericht":11805,"Ġbetracht":11806,"ĠBefug":11807,"Ġspanischen":11808,"gemeinschaft":11809,"ĠKomment":11810,"Ġdoesn":11811,"Ġbetreffenden":11812,"ĠDiv":11813,"Ġpreparation":11814,"Ġ{{":11815,"Ġruhigen":11816,"Ġstake":11817,"Ġausgezeichneten":11818,"aga":11819,"looking":11820,"Ġmur":11821,"Ġgelang":11822,"ĠFranc":11823,"ĠKusten":11824,"Ġillustr":11825,"Ġcer":11826,"ĠVerfahrens":11827,"Ġhospit":11828,"win":11829,"ĠNahen":11830,"Ġmandate":11831,"Ġlicense":11832,"apest":11833,"Ġverandern":11834,"bildungs":11835,"verletz":11836,"ĠKohasions":11837,"Ġursprunglichen":11838,"eig":11839,"ĠRef":11840,"Ġladen":11841,"Ġlovely":11842,"dr":11843,"Ġfuhlen":11844,"ĠEp":11845,"Ġunderm":11846,"Ġhandling":11847,"ĠVoraussetzung":11848,"Adresse":11849,"oria":11850,"Ġimpression":11851,"Ġoffenen":11852,"Ġhit":11853,"andal":11854,"Ġrequirement":11855,"Ġhealthy":11856,"ĠDauer":11857,"Ġgelegt":11858,"Ġinstalliert":11859,"ĠPrivate":11860,"ĠPapier":11861,"Ġcancel":11862,"Ġremaining":11863,"Ġqualifiz":11864,"Ġrestrictions":11865,"Ġboat":11866,"Ġawareness":11867,"ochter":11868,"wachstum":11869,"Ja":11870,"Ġschreiben":11871,"Welche":11872,"einrichtungen":11873,"holders":11874,"Ġpresident":11875,"Ġsla":11876,"ĠUberzeugung":11877,"Ġgrundlegende":11878,"AF":11879,"entions":11880,"Ġacquis":11881,"Ġgene":11882,"47":11883,"Ġcontracts":11884,"roff":11885,"ĠCharl":11886,"Vielleicht":11887,"Ġmenschlichen":11888,"ĠNormen":11889,"Ġrichten":11890,"Ġgewalt":11891,"Ġliberalisation":11892,"erse":11893,"Ġvolume":11894,"Ġeinfachen":11895,"Ġcharges":11896,"pa":11897,"vol":11898,"enturen":11899,"ĠEinstellung":11900,"ĠVerbesserungen":11901,"Ġissued":11902,"ĠÐ²":11903,"ĠAst":11904,"[[":11905,"enter":11906,"Ġprohib":11907,"Ġdebates":11908,"ĠEP":11909,"Ġkons":11910,"Ġfighting":11911,"Ġaufzunehmen":11912,"ĠBauern":11913,"ĠBeratung":11914,"Ġphen":11915,"ĠJean":11916,"ĠMuslim":11917,"Ġcharacteristics":11918,"Sta":11919,"rating":11920,"Ġremote":11921,"Ġkommer":11922,"ĠBritain":11923,"Ġcollective":11924,"Ġbalcony":11925,"Ġprasentiert":11926,"eler":11927,"ĠAbsch":11928,"ĠRegistr":11929,"ĠMeinungs":11930,"Ġrapporteurs":11931,"ĠIdentitat":11932,"Trans":11933,"stood":11934,"Ġabroad":11935,"Ġuniversal":11936,"ĠGNU":11937,"lles":11938,"Ġsorgt":11939,"ĠKnow":11940,"unicip":11941,"Ġentscheidend":11942,"Ġtrifft":11943,"light":11944,"ashington":11945,"Ġhochsten":11946,"enze":11947,"Ġdining":11948,"Ġanwes":11949,"Ġprove":11950,"Ġdecis":11951,"Ġfunktionieren":11952,"Ġdetaill":11953,"Ġopinions":11954,"ĠLuxembourg":11955,"holen":11956,"systems":11957,"ĠWander":11958,"reichung":11959,"Ġinhabit":11960,"-/":11961,"ipel":11962,"Ġreturned":11963,"Ġalbum":11964,"grenzung":11965,"Ġstimmt":11966,"behorde":11967,"Ġsurroundings":11968,"Ġfasc":11969,"Ġdich":11970,"Ġcoher":11971,"Ġachten":11972,"TML":11973,"ĠWil":11974,"Ġabol":11975,"Ġ1989":11976,"Ġresolutions":11977,"code":11978,"Ġextraordin":11979,"meldung":11980,"'ve":11981,"Ġfaith":11982,"Ġhair":11983,"Ġoperational":11984,"Ġgezogen":11985,"ĠStahl":11986,"Ġmaintained":11987,"Ġsexual":11988,"Ġniedrig":11989,"Ġabgelehnt":11990,"Ġcreates":11991,"Ġpattern":11992,"ĠNahrungsmittel":11993,"Ġsuite":11994,"spar":11995,"tein":11996,"Ġvous":11997,"Ġlobby":11998,"Ġkurze":11999,"Ġberaten":12000,"Get":12001,"Ġcommun":12002,"Ġidentify":12003,"Ġcry":12004,"Ġstarten":12005,"Ġdepends":12006,"ĠSafety":12007,"td":12008,"Ġgold":12009,"Ġumzusetzen":12010,"Ġignor":12011,"Ġprecise":12012,"angebot":12013,"Ġcab":12014,"ĠAusmaÃŁ":12015,"Ġkunftigen":12016,"Ġausgesprochen":12017,"Ġzuganglich":12018,"ĠWare":12019,"ĠMySQL":12020,"Nor":12021,"ĠAnw":12022,"Ġorganisiert":12023,"liste":12024,"loyed":12025,"ĠAnwendungs":12026,"igsten":12027,"ĠStrukturen":12028,"Ġmessages":12029,"afft":12030,"General":12031,"inational":12032,"Ġgetr":12033,"ittees":12034,"ĠUbereinstimmung":12035,"Bo":12036,"Ġsi":12037,"Ġrecommendation":12038,"ĠVeranstaltung":12039,"ohne":12040,"Ġ1991":12041,"rankung":12042,"freie":12043,"ĠHostelsclub":12044,"ĠGarantie":12045,"Ġwalls":12046,"anging":12047,"Ġfee":12048,"Ġrenovated":12049,"reffen":12050,"ĠSund":12051,"Ġdecorated":12052,"plant":12053,"Ġdritte":12054,"Ġclassic":12055,"ĠGDP":12056,"Ġtraditions":12057,"ĠSchweden":12058,"Ġvolunt":12059,"Ġdurchzufuhren":12060,"Ġverschiedener":12061,"ĠAirbus":12062,"ML":12063,"deb":12064,"ĠEntscheidungs":12065,"Ġriesigen":12066,"ĠInvestitions":12067,"Ġgratulieren":12068,"fined":12069,"wirkung":12070,"Ġcatalog":12071,"ĠUSD":12072,"ĠRobert":12073,"Ġveran":12074,"Ġverursacht":12075,"Ġlautet":12076,"ĠRund":12077,"Ġerlauben":12078,"Ġgets":12079,"ĠNon":12080,"ziele":12081,"ĠUNO":12082,"ĠTagung":12083,"Ġgewonnen":12084,"Ġubernimmt":12085,"hmigung":12086,"Ġbekampfen":12087,"ĠPia":12088,"lett":12089,"Entw":12090,"ĠArme":12091,"Ġschnelle":12092,"Ġschrift":12093,"Ġsoweit":12094,"Ġirre":12095,"ateful":12096,"Ġruck":12097,"ĠTermin":12098,"86":12099,"ĠArmen":12100,"Ġausgewogen":12101,"Ġausgeschlossen":12102,"igkeits":12103,"Ġgebaut":12104,"werb":12105,"Ġbreite":12106,"Ġanstatt":12107,"hrt":12108,"Ġamt":12109,"Ġdark":12110,"Ġsin":12111,"ĠPunkten":12112,"Ġinvolve":12113,"Ġcable":12114,"Ġbezug":12115,"ĠNG":12116,"izer":12117,"ĠGroÃŁen":12118,"ĠHarmonisierung":12119,"ighten":12120,"center":12121,"ĠFestlegung":12122,"ĠMobilitat":12123,"ĠAngst":12124,"vant":12125,"Ġappoint":12126,"Ġgender":12127,"Comm":12128,"zellen":12129,"Follow":12130,"Ġverlangt":12131,"stad":12132,"Ġyouth":12133,"rufen":12134,"Ġconflicts":12135,"Ġfordere":12136,"inuier":12137,"Ġgelost":12138,"lastung":12139,"Ġartist":12140,"Â¤":12141,"aling":12142,"Ġsauna":12143,"Ġkost":12144,"ĠVir":12145,"Ġlegend":12146,"Ġordnungs":12147,"ĠKontro":12148,"ypern":12149,"Ġfacilitate":12150,"Ġowner":12151,"banken":12152,"oÃŁen":12153,"ĠRefer":12154,"Ġproperties":12155,"ĠTim":12156,"Ġleistungs":12157,"Ġperfekt":12158,"ĠTown":12159,"ĠST":12160,"ĠSecret":12161,"ziplin":12162,"ĠVerhandlungs":12163,"Ġbeseit":12164,"erte":12165,"ĠKonsens":12166,"ĠSov":12167,"Ġmogliche":12168,"Ġgone":12169,"Ġregularly":12170,"ĠProcedure":12171,"Ġwitness":12172,"Ġcatch":12173,"ĠAnderungsantragen":12174,"Ġinspir":12175,"Under":12176,"ĠKrisen":12177,"ĠEngine":12178,"Ġschafft":12179,"ĠVorschlagen":12180,"ĠAtom":12181,"grenzen":12182,"Ġdrawing":12183,"ĠMall":12184,"Ġbuchen":12185,"Ġuneingesch":12186,"lieb":12187,"cohol":12188,"uliert":12189,"ĠLager":12190,"kehren":12191,"ĠBox":12192,"Ġreported":12193,"ĠTel":12194,"ĠAnfragen":12195,"Ġwettbewerbs":12196,"Ġsmo":12197,"Ġauftreten":12198,"Ġhardware":12199,"ĠKas":12200,"endo":12201,"ĠAction":12202,"Ġmetal":12203,"ĠDrittlandern":12204,"rium":12205,"Ġreserves":12206,"Ġannehmen":12207,"azier":12208,"Ġconducted":12209,"ĠSteuern":12210,"Ġaftern":12211,"Ġvacation":12212,"ĠPuert":12213,"mitten":12214,"Ġcustoms":12215,"produkte":12216,"ĠSens":12217,"Ġalarm":12218,"Ġbekomm":12219,"Pal":12220,"ĠIst":12221,"Ġeinzigartige":12222,"ĠGeschaft":12223,"Ġaufgefordert":12224,"ĠShow":12225,"BC":12226,"modell":12227,"ĠAusstattung":12228,"Ġ95":12229,"oche":12230,"Ġangesehen":12231,"ĠThese":12232,"ĠAlternative":12233,"water":12234,"atigung":12235,"aller":12236,"standards":12237,"Ġwissenschaftlichen":12238,"garn":12239,"wald":12240,"ĠKrankheiten":12241,"Ġmeat":12242,"Ġenh":12243,"Ġtransportation":12244,"onymous":12245,"decken":12246,"inks":12247,"Ġconsc":12248,"Ġperformed":12249,"Ġintensiv":12250,"ĠGegend":12251,"ĠInternets":12252,"ĠCanada":12253,"Ġparliaments":12254,"ĠBulgaria":12255,"Ġzugunsten":12256,"Ġphenomen":12257,"Ġrecip":12258,"Ġhundreds":12259,"ito":12260,"Ġhervorheben":12261,"Ġload":12262,"ĠPolizei":12263,"point":12264,"Ġnavig":12265,"ĠPot":12266,"ĠTschech":12267,"ĠAnschluss":12268,"Ġsupposed":12269,"ĠVerd":12270,"Ġparents":12271,"Ġzentralen":12272,"Ġeast":12273,"ĠBestellung":12274,"ĠFarbe":12275,"ĠBalkan":12276,"uese":12277,"aret":12278,"ĠMaast":12279,"ĠAbschnitt":12280,"Ġtopic":12281,"Ġaccompan":12282,"Ġnorthern":12283,"Ġsehe":12284,"Ġintensive":12285,"44":12286,"berge":12287,"ĠStandort":12288,"Ġinterior":12289,"Ġsomewhat":12290,"Ġvereinbar":12291,"iny":12292,"Ġdefine":12293,"rates":12294,"Ġworse":12295,"Ġcareer":12296,"Ġerheblich":12297,"ĠGerate":12298,"Ġschne":12299,"fuhrte":12300,"udes":12301,"ĠJapanese":12302,"Ġiron":12303,"Ġ900":12304,"ĠAktien":12305,"Ġbeabsicht":12306,"Ġeinig":12307,"well":12308,"ĠGestaltung":12309,"Ġpraz":12310,"ĠKilometer":12311,"67":12312,"orca":12313,"ĠOk":12314,"eta":12315,"andt":12316,"ĠRegime":12317,"ĠMEPs":12318,"Ġcontrast":12319,"Ġverwende":12320,"Ġdates":12321,"istern":12322,"Ġzut":12323,"ĠList":12324,"Ġverstanden":12325,"forschung":12326,"ĠUbersetzung":12327,"Ġdrop":12328,"Ġregulatory":12329,"erechtigkeit":12330,"Ġholding":12331,"utung":12332,"schirm":12333,"Ġseeing":12334,"Ġfollows":12335,"Ġavec":12336,"essions":12337,"Commission":12338,"uhe":12339,"Ġzustandigen":12340,"verwalt":12341,"ĠBehinder":12342,"Ġdisplayed":12343,"Ġbegluckwunschen":12344,"%,":12345,"Ġabandon":12346,"Ġamaz":12347,"Ġfolg":12348,"Ġterrorist":12349,"iox":12350,"izz":12351,"ĠAusfuhrungen":12352,"ĠSup":12353,"ĠExecutive":12354,"Ġvisa":12355,"ĠExport":12356,"Ġjoined":12357,"ĠRegierungskonferenz":12358,"Ġticket":12359,"iera":12360,"ĠStraÃŁ":12361,"ĠFahigkeiten":12362,"ĠCroatia":12363,"Ferner":12364,"ringerung":12365,"rot":12366,"waltigen":12367,"ĠFrid":12368,"ĠMS":12369,"Ġdurchfuhren":12370,"Ġfruheren":12371,"Ġunfor":12372,"stanz":12373,"ranke":12374,"Ġzufolge":12375,"Ġnachhaltigen":12376,"Ġparlament":12377,"Ġungefahr":12378,"Ġupdated":12379,"65":12380,"ĠGU":12381,"ĠUmfeld":12382,"Ġfrequently":12383,"ĠHans":12384,"Ġdim":12385,"ĠBSE":12386,"Ġconnections":12387,"aled":12388,"ĠEis":12389,"ivals":12390,"Ġtowns":12391,"ĠRatsprasidentschaft":12392,"ĠAusgangspunkt":12393,"eding":12394,"Ġschwed":12395,"Ġultimately":12396,"care":12397,"Ġfaster":12398,"ĠMusic":12399,"Ġislands":12400,"Ġcontinent":12401,"Ġbestatigen":12402,"unning":12403,"ĠGeorge":12404,"Ġnoted":12405,"Ġtechniques":12406,"Ġverbringen":12407,"Ġought":12408,"ĠArbeitsplatzen":12409,"ĠAlp":12410,"ĠMarina":12411,"Ġanswers":12412,"ĠSur":12413,"Ġlabel":12414,"Ġkontinuier":12415,"Ġfather":12416,"techn":12417,"ĠRec":12418,"Ġminority":12419,"organ":12420,"ĠPolish":12421,"Ġbenefic":12422,"uers":12423,"ifies":12424,"beauftrag":12425,"Ġehrgeiz":12426,"Ġstylish":12427,"Ġsodass":12428,"Ġwunsch":12429,"CHT":12430,"ĠKontext":12431,"Ġverabschiedet":12432,"gunst":12433,"Ġdeals":12434,"wechs":12435,"ĠZentralbank":12436,"ĠWasch":12437,"Ġpieces":12438,"ĠHimm":12439,"lared":12440,"ĠBeispiele":12441,"Ġnotwendige":12442,"ĠGleichgewicht":12443,"bul":12444,"Ġunent":12445,"Ġderart":12446,"Ġ65":12447,"Ġorganized":12448,"ĠAnton":12449,"Ġmother":12450,"ĠCap":12451,"ĠHaup":12452,"Ġplot":12453,"aumen":12454,"lasslich":12455,"Ġarrive":12456,"Ġbud":12457,"ĠSauna":12458,"add":12459,"Ġaktuell":12460,"ĠCyprus":12461,"Person":12462,"stud":12463,"arr":12464,"ĠGeheim":12465,"Ġsettings":12466,"ĠApartment":12467,"osis":12468,"Ġworry":12469,"Ġemergency":12470,"orama":12471,"Ġtrib":12472,"ĠEntwicklungslander":12473,"ĠAnti":12474,"cean":12475,"ĠWolf":12476,"Ġdemanding":12477,"ĠCheck":12478,"ĠReisen":12479,"igend":12480,"ĠAward":12481,"minuten":12482,"schm":12483,"Ġausgestatte":12484,"Ġpharm":12485,"bart":12486,"ĠUbereinkommen":12487,"ĠHilfs":12488,"Ġreact":12489,"ete":12490,"zeichnis":12491,"garten":12492,"nischen":12493,"ĠReport":12494,"horigen":12495,"ĠMonetary":12496,"ĠSchatten":12497,"related":12498,"imedia":12499,"ĠWashington":12500,"Ġgewissen":12501,"ĠRegen":12502,"ĠAusfuhrung":12503,"ĠLiebe":12504,"undert":12505,"Ġgrateful":12506,"Ġethnic":12507,"iftung":12508,"ĠAutomobil":12509,"minute":12510,"ĠPlenum":12511,"pap":12512,"Ġderartige":12513,"usted":12514,"Ġinteressante":12515,"Ġmagnific":12516,"ci":12517,"Ġbezahlen":12518,"ĠDusche":12519,"ĠGepack":12520,"Ġbehavi":12521,"Ġhostel":12522,"Ġanspruchs":12523,"ĠLim":12524,"Ġinvite":12525,"Ġdrug":12526,"Ġincomp":12527,"ĠKroat":12528,"ĠLange":12529,"Ġelectricity":12530,"Amer":12531,"Ġprivat":12532,"otive":12533,"ĠSonne":12534,"Ġermut":12535,"OF":12536,"Ġcastle":12537,"ĠAnhang":12538,"Like":12539,"ties":12540,"ĠTime":12541,"ĠLife":12542,"Ġdivided":12543,"Ġmitten":12544,"Ġentschlossen":12545,"Ġproof":12546,"Ġheritage":12547,"ĠArbeitsplatz":12548,"ĠWild":12549,"ĠNap":12550,"ĠBef":12551,"ounter":12552,"Ġheat":12553,"Ġproduziert":12554,"ģĦ":12555,"Ġsupplement":12556,"ĠBlut":12557,"Ġrefr":12558,"ĠBrasil":12559,"Ġbeschrankt":12560,"Ġstring":12561,"ĠEinheit":12562,"ĠVermogen":12563,"Ġtail":12564,"Ġschad":12565,"Ġvisual":12566,"Ġdriver":12567,"Ġentwickelten":12568,"Ġster":12569,"Ġexpansion":12570,"Ġdelighted":12571,"krit":12572,"Ġhangt":12573,"Ġproducing":12574,"Ġseat":12575,"Ġquarter":12576,"ammt":12577,"Ġstatistics":12578,"kreis":12579,"Ġmigration":12580,"ĠTa":12581,"Ġwindows":12582,"ergeb":12583,"Ġmultinational":12584,"ĠRedner":12585,"Ġcourage":12586,"Ġvorange":12587,"ĠPrinzipien":12588,"ĠTom":12589,"Ġverhindert":12590,"ibliothek":12591,"Two":12592,"ĠKMU":12593,"Ġosterreich":12594,"ĠBy":12595,"Ġverleihen":12596,"Ġ55":12597,"agers":12598,"ĠJer":12599,"Ġsuites":12600,"ĠAusgabe":12601,"Software":12602,"ĠGewicht":12603,"orer":12604,"OC":12605,"Ġtourists":12606,"ĠNice":12607,"Ġwelfare":12608,"Ġwidely":12609,"ĠVerringerung":12610,"Ġentrance":12611,"Ġrelaxation":12612,"Ġchannels":12613,"Ġwines":12614,"Ġunmoglich":12615,"Ġausgezeichnet":12616,"ĠPartnern":12617,"ausend":12618,"Ġentdeck":12619,"Ġausgesetzt":12620,"Ġinvestors":12621,"Ġgepruft":12622,"Ġserviert":12623,"Drittens":12624,"pg":12625,"ĠWebsites":12626,"Ġfreiwill":12627,"tendlich":12628,"Ġprotocol":12629,"Ġpollution":12630,"ĠEinbeziehung":12631,"ĠIndones":12632,"Ġvisible":12633,"Ġindividuell":12634,"ĠLate":12635,"ĠDeutschen":12636,"Ġtats":12637,"onien":12638,"rucke":12639,"ĠExpl":12640,"Ġinvolves":12641,"rafts":12642,"ĠFreiheiten":12643,"ĠLuf":12644,"Ġjetz":12645,"Ġvalley":12646,"uhen":12647,"Ġdeclaration":12648,"Ġlibrary":12649,"etzten":12650,"160":12651,"Ġ34":12652,"ĠRumanien":12653,"Men":12654,"Ġaufnehmen":12655,"apy":12656,"Ġdirekten":12657,"Ġlocations":12658,"sidiar":12659,"tete":12660,"Ġprotest":12661,"Ġcontacts":12662,"Ġbottom":12663,"apes":12664,"Ġpresents":12665,"col":12666,"ausschuÃŁ":12667,"Ġgeboten":12668,"à¸":12669,"ĠAnbieter":12670,"Ġentsteht":12671,"ĠInf":12672,"ĠVerteidigung":12673,"Ġinhabitants":12674,"ĠAnspr":12675,"rennen":12676,"Ġwelchem":12677,"Ġstarts":12678,"erkennen":12679,"steuer":12680,"Ġsubsidies":12681,"ĠMold":12682,"ĠSchlafzimmer":12683,"ĠAgric":12684,"ĠTochter":12685,"level":12686,"icans":12687,"ĠGovern":12688,"Ġmaintaining":12689,"Ġkurzfrist":12690,"ĠSpeicher":12691,"Ġcash":12692,"Ġoral":12693,"ĠFaktoren":12694,"estr":12695,"Ġsymp":12696,"Ġinterv":12697,"Ġflights":12698,"maschine":12699,"ĠFunds":12700,"mens":12701,"Ġkontakt":12702,"Ġbestimmen":12703,"iga":12704,"ĠProblems":12705,"izza":12706,"ĠBeziehung":12707,"UL":12708,"Ġvisiting":12709,"Ġexplore":12710,"Ġexciting":12711,"Tatsachlich":12712,"Ġsac":12713,"ĠMexico":12714,"Ġtie":12715,"isses":12716,"iented":12717,"Ġbeeindruck":12718,"88":12719,"Ġabgestimmt":12720,"Ġerreichbar":12721,"pay":12722,"Ġmitge":12723,"aux":12724,"Ġgeboren":12725,"UNG":12726,"ĠErsatz":12727,"ĠYear":12728,"Ġpassiert":12729,"Ġafternoon":12730,"Ġkampfen":12731,"Ġstars":12732,"Ġindicated":12733,"Ġwollten":12734,"Ġcollaboration":12735,"Ġstaatlichen":12736,"ROM":12737,"ĠViertel":12738,"Ġunderstood":12739,"ibar":12740,"Ġproved":12741,"Ġfocused":12742,"Ġbilateral":12743,"Ohne":12744,"icer":12745,"ĠEarth":12746,"nerg":12747,"Ġantw":12748,"ĠCongress":12749,"Ġstored":12750,"ĠUpdate":12751,"Well":12752,"Ġcorresponding":12753,"ĠVorbe":12754,"Ġdemonstrate":12755,"diction":12756,"cons":12757,"Ġcareful":12758,"Ġshowing":12759,"Ġsigns":12760,"Ġdemonstrated":12761,"ĠTy":12762,"werks":12763,"Ġvisited":12764,"ĠVorschlags":12765,"ĠBuchung":12766,"gerate":12767,"ĠgeauÃŁ":12768,"ietnam":12769,"TC":12770,"Ġsah":12771,"Ġgeltenden":12772,"Ġgardens":12773,"ĠAusstellung":12774,"âģĦ":12775,"etzte":12776,"ikaner":12777,"stehenden":12778,"ĠKongress":12779,"Ġnewsp":12780,"maÃŁigen":12781,"Ġcosy":12782,"Ġdepartment":12783,"Ġsorgfaltig":12784,"life":12785,"Ñĩ":12786,"Ġvollstandige":12787,"lichung":12788,"ĠWunsche":12789,"ubt":12790,"ĠPlanung":12791,"Ġspoken":12792,"ĠEss":12793,"ĠGeschafte":12794,"ĠKrafte":12795,"Ġgezwungen":12796,"ĠVerbot":12797,"Ġerleichtern":12798,"ĠEdition":12799,"Ġtatsach":12800,"national":12801,"Ġven":12802,"ĠPortuguese":12803,"Ġverschw":12804,"ĠGot":12805,"Ġsmooth":12806,"periode":12807,"ĠGerichte":12808,"Ġlegt":12809,"Ġdrivers":12810,"TH":12811,"Ġking":12812,"Ġausgefuhrt":12813,"ĠDirekt":12814,"ĠFuhrer":12815,"ulen":12816,"rical":12817,"ilder":12818,"ĠFramework":12819,"scheidet":12820,"Ġdefiniert":12821,"Ġmostly":12822,"Ġtrop":12823,"Ġdepending":12824,"Ġferner":12825,"Ġrub":12826,"BM":12827,"aching":12828,"ĠGentoo":12829,"Ġstopp":12830,"Ġawa":12831,"ography":12832,"ĠHaftung":12833,"ĠBemerkungen":12834,"Ġaccident":12835,"Ġcutting":12836,"gor":12837,"Ġcategories":12838,"Ġwann":12839,"vertre":12840,"Ġwestlichen":12841,"Ġinput":12842,"das":12843,"ĠBelast":12844,"Ġfitness":12845,"ĠDenk":12846,"Ġfab":12847,"ĠTax":12848,"ĠProjekten":12849,"fallt":12850,"maÃŁige":12851,"Ġplanet":12852,"ĠbegruÃŁt":12853,"ef":12854,"Ġnine":12855,"ĠBook":12856,"Ġou":12857,"ĠErholung":12858,"Ġhoheren":12859,"Ġaccompanied":12860,"Ġtheme":12861,"Ġcommission":12862,"Ġpreis":12863,"Ġhast":12864,"ĠStruct":12865,"Ġworksh":12866,"Ġbestand":12867,"klass":12868,"ĠGesetzes":12869,"Ġgast":12870,"ĠCook":12871,"afes":12872,"Ġlebens":12873,"weile":12874,"ĠSatur":12875,"ĠPRO":12876,"wurdigkeit":12877,"ulf":12878,"ĠZypern":12879,"Ġkostet":12880,"ĠVideos":12881,"ĠNeben":12882,"ĠSchuld":12883,"Ġnachzu":12884,"bleme":12885,"Ġfinished":12886,"ĠBaltic":12887,"Ġfacility":12888,"ĠPact":12889,"Ġkamen":12890,"apie":12891,"ups":12892,"Ġresistance":12893,"Ġverehrte":12894,"Ġvorlegen":12895,"Ġpersonnel":12896,"ĠBrenn":12897,"Du":12898,"Ġ33":12899,"Ġinflation":12900,"pet":12901,"Ġechten":12902,"ĠEigentum":12903,"ĠBeitrage":12904,"ĠHD":12905,"Ġrestruct":12906,"ĠFeuer":12907,"ĠMull":12908,"Ġsolange":12909,"Ġbreit":12910,"Ġsettlement":12911,"ĠTaiwan":12912,"Ġbeschleun":12913,"ĠKreuz":12914,"Ġjegliche":12915,"Ġcopyright":12916,"ĠâĢĵ,":12917,"ammeln":12918,"ĠVereinbarungen":12919,"Ġchinesischen":12920,"Ġdistingu":12921,"Ġconcluded":12922,"2005":12923,"Ġspezifischen":12924,"Bus":12925,"ulpt":12926,"ĠGemeinde":12927,"Ġverringern":12928,"Ġspectacular":12929,"Welcome":12930,"ĠKompetenz":12931,"oub":12932,"uchs":12933,"eing":12934,"Ġcontrolled":12935,"ĠCopenhagen":12936,"Ġongoing":12937,"Ġeffectiveness":12938,"Ġangemessene":12939,"ni":12940,"Ġexplicit":12941,"ĠBudapest":12942,"Ġconfer":12943,"Ġnahezu":12944,"NS":12945,"Ġindividuelle":12946,"holm":12947,"Ġdidn":12948,"Ġgespeichert":12949,"ĠIV":12950,"Ġera":12951,"Ġbemuhen":12952,"iences":12953,"Ġerinnert":12954,"ĠEinwohner":12955,"ĠSemin":12956,"iforn":12957,"udi":12958,"ganz":12959,"tert":12960,"Sow":12961,"Strategie":12962,"Port":12963,"irs":12964,"ĠLtd":12965,"Ġdream":12966,"66":12967,"Ġcommittees":12968,"Ġcarbon":12969,"urr":12970,"Ġautonom":12971,"Ġfertig":12972,"ifest":12973,"ughter":12974,"wirtschafts":12975,"teilungen":12976,"hips":12977,"Ġbilater":12978,"nitten":12979,"ĠFleisch":12980,"Ġang":12981,"ĠSpazier":12982,"ĠÐ½":12983,"riminalitat":12984,"ĠGesellschaften":12985,"Before":12986,"pragt":12987,"Ġhochst":12988,"Ġlounge":12989,"Ġprox":12990,"Ġheutige":12991,"Ġreplaced":12992,"ĠBalkon":12993,"ĠMaastricht":12994,"ĠZiffer":12995,"Ġraw":12996,"Ġtar":12997,"Ġplenty":12998,"arters":12999,"Ġprinting":13000,"Ġdocumentation":13001,"Ġflag":13002,"Ġheating":13003,"Ġpalastinens":13004,"agg":13005,"usehen":13006,"emble":13007,"ameters":13008,"sidiaritat":13009,"ĠOrte":13010,"ĠAuÃŁenpolitik":13011,"Ġnights":13012,"cepts":13013,"ĠWord":13014,"aya":13015,"ĠVerbindungen":13016,"IDS":13017,"Ġcycle":13018,"Ġubrigens":13019,"Ġrational":13020,"ĠJa":13021,"Ġcitizen":13022,"ĠSki":13023,"ĠAudio":13024,"ĠPrague":13025,"Ġball":13026,"ĠAsien":13027,"Ġminorities":13028,"bach":13029,"Ġknapp":13030,"Ġbestehende":13031,"ulin":13032,"Ġfilms":13033,"Ġoccasions":13034,"ĠProtection":13035,"ĠMode":13036,"ĠWC":13037,"Ġeducational":13038,"Pla":13039,"Ġfoundation":13040,"ifizieren":13041,"ĠProfession":13042,"ĠEuropol":13043,"Russ":13044,"ĠUs":13045,"recher":13046,"Pol":13047,"oden":13048,"Ġfirms":13049,"ĠWerbung":13050,"Ġtrafficking":13051,"rown":13052,"ĠVorgehen":13053,"BA":13054,"Je":13055,"Stud":13056,"ĠAlli":13057,"ĠNetwork":13058,"Ġawarded":13059,"Ġbehaviour":13060,"Rat":13061,"Ġtermin":13062,"ĠKamera":13063,"athol":13064,"Ġdefinitely":13065,"ĠElect":13066,"ĠNic":13067,"wege":13068,"ignet":13069,"ĠLeon":13070,"Ġframe":13071,"}})":13072,"Ġkonkret":13073,"kurz":13074,"renz":13075,"Ġcrimes":13076,"Ġtickets":13077,"ĠOffen":13078,"Ġcorruption":13079,"Ġconstitution":13080,"Ġfem":13081,"Instead":13082,"ĠKonzer":13083,"Ġimmigrants":13084,"urlaub":13085,"ĠNaz":13086,"ĠPalastinens":13087,"tung":13088,"ĠInfl":13089,"Ġtackle":13090,"ĠAP":13091,"ĠMenu":13092,"Ġletztlich":13093,"Ġspeaker":13094,"beziehungen":13095,"Ġscr":13096,"Ġverdient":13097,"Ġpassenger":13098,"ĠSlovak":13099,"Vis":13100,"Ġcompetent":13101,"ĠWebseiten":13102,"ĠOR":13103,"gerufen":13104,"Ġassume":13105,"Ġeingere":13106,"klusive":13107,"ĠFernseh":13108,"rep":13109,"Ġ1970":13110,"Ġrapidly":13111,"Ġusual":13112,"Ġrecorded":13113,"ĠSchweizer":13114,"Ġbehalten":13115,"Ġverbind":13116,"ĠBoot":13117,"85":13118,"bsp":13119,"Ġped":13120,"ĠGames":13121,"ĠPartners":13122,"ĠVeroffentlichung":13123,"Ġassets":13124,"ĠCamping":13125,"COM":13126,"Ġprest":13127,"teils":13128,"Ġberechtigt":13129,"uous":13130,"ĠGrundung":13131,"Ġgrundsatzlich":13132,"Ġgeeig":13133,"Through":13134,"Ġovercome":13135,"demark":13136,"Ġplen":13137,"Ġgegebenen":13138,"Zusatz":13139,"enkung":13140,"ĠIsraeli":13141,"Ġoblige":13142,"Sc":13143,"Ġspiel":13144,"ĠauÃŁerordentlich":13145,"Ġ2012":13146,"ĠBars":13147,"Ġwoman":13148,"ĠordnungsgemaÃŁ":13149,"Ġadopting":13150,"DER":13151,"Dadurch":13152,"schaffung":13153,"Ġrespected":13154,"ĠUbersetz":13155,"ĠZwecke":13156,"ĠMail":13157,"ĠFormat":13158,"ĠMilch":13159,"Ä±":13160,"Ġimposed":13161,"Ġverurteilt":13162,"wiesen":13163,"ĠAbkommens":13164,"Ġcompatible":13165,"Ġneun":13166,"iki":13167,"ĠGesprache":13168,"Applause":13169,"Ġdesired":13170,"ĠEinwanderung":13171,"Ġmittler":13172,"tat":13173,"ĠBIP":13174,"Ġconfiguration":13175,"ĠVerpack":13176,"1999":13177,"Ġbeschaftigen":13178,"lements":13179,"ĠParkplatz":13180,"ĠSubsidiaritat":13181,"ĠUngarn":13182,"ĠWegen":13183,"Ġcenturies":13184,"ĠTarif":13185,"Ġroutes":13186,"Ġverbinden":13187,"Ġeinfacher":13188,"ĠZielen":13189,"ĠMarktes":13190,"ĠFranz":13191,"ĠBesonder":13192,"Ġrechtlichen":13193,"Ġjenen":13194,"Ġuncertain":13195,"Ġscheme":13196,"Ġprofile":13197,"ĠProvinz":13198,"Free":13199,"Ġhart":13200,"ĠVerbreitung":13201,"Ġnunmehr":13202,"Ġvirtual":13203,"Ġeinheitlichen":13204,"Ġproven":13205,"ĠPrin":13206,"beweg":13207,"bekampfung":13208,"ĠFreit":13209,"77":13210,"druckt":13211,"chnen":13212,"ĠAbhang":13213,"Ġorganisieren":13214,"Ġmanufacturer":13215,"Ġdein":13216,"amo":13217,"Ġforg":13218,"hlt":13219,"Î±":13220,"useums":13221,"Ġtraditionelle":13222,"Ġreplace":13223,"alerie":13224,"Ġtransactions":13225,"ĠSpecial":13226,"Ġseas":13227,"ĠPolitiken":13228,"Ġcontaining":13229,"Take":13230,"emat":13231,"Ġflu":13232,"zt":13233,"Ġeinsch":13234,"ĠBord":13235,"ĠPlay":13236,"ĠAktual":13237,"kommunik":13238,"Ġdestruction":13239,"Ġsending":13240,"NA":13241,"Ġfacts":13242,"ÐµÐ½":13243,"ĠSMEs":13244,"Ġappointed":13245,"ĠEnergien":13246,"ĠFriday":13247,"anc":13248,"Ġersetzt":13249,"chnung":13250,"Ġgespielt":13251,"ĠJung":13252,"Ġsubsidiarity":13253,"Ġice":13254,"ĠGefahren":13255,"zentren":13256,"Ġjudicial":13257,"ockt":13258,"Ġsugar":13259,"Ġarrived":13260,"politische":13261,"durch":13262,"Ġenjoyed":13263,"Ġcorrectly":13264,"Ġweekend":13265,"Ġlicens":13266,"ĠUR":13267,"Ġletzter":13268,"ĠArgument":13269,"herr":13270,"Ġpossibly":13271,"Ġmaritime":13272,"Ġmilk":13273,"Ġbattle":13274,"Ġisrael":13275,"Ġfunctioning":13276,"Ġcredibility":13277,"IK":13278,"ĠRent":13279,"Ġminister":13280,"Ġstronger":13281,"ĠMikro":13282,"EE":13283,"Ġtransatlant":13284,"ĠPreisen":13285,"ĠWart":13286,"lers":13287,"ĠBeam":13288,"Ġvorstellen":13289,"Ġruhig":13290,"arp":13291,"Ġgallery":13292,"neimit":13293,"Beifall":13294,"ĠSorgen":13295,"ĠNos":13296,"Ġberuht":13297,"aptain":13298,"Ġvorhandenen":13299,"Ġconditioning":13300,"Jedes":13301,"jan":13302,"Ġforum":13303,"Ġrul":13304,"ĠZert":13305,"Ġuberras":13306,"Ġerfolgreiche":13307,"Ġpartly":13308,"ĠMedik":13309,"Ġprofessionals":13310,"ĠiP":13311,"gelost":13312,"while":13313,"Phone":13314,"Sim":13315,"Ġshares":13316,"iessen":13317,"lications":13318,"order":13319,"asy":13320,"Ġentscheidende":13321,"Ġalcohol":13322,"ĠZuck":13323,"ĠHostel":13324,"Ġgestaltet":13325,"Ġluxurious":13326,"Ġlabe":13327,"ĠMrd":13328,"ĠBuro":13329,"dauer":13330,"Ġamen":13331,"Ġdivision":13332,"Ġchannel":13333,"Cons":13334,"Ġtheoret":13335,"Ġfuer":13336,"Ġdeclared":13337,"Ġcourts":13338,"Ġcoal":13339,"ĠAuthor":13340,"ĠSerie":13341,"teln":13342,"Ġinstallieren":13343,"Ġemerging":13344,"Ġsatisfied":13345,"ardo":13346,"Ġdomain":13347,"ĠVerlust":13348,"Ġbemer":13349,"Ġbekraft":13350,"nex":13351,"ĠMem":13352,"Ġindividuellen":13353,"Ġcertific":13354,"ĠSymbol":13355,"Ġast":13356,"itra":13357,"ĠRoad":13358,"ĠKomponenten":13359,"Ġdiscip":13360,"Ġmanager":13361,"Their":13362,"ĠRezeption":13363,"ĠLiter":13364,"ernel":13365,"ĠRespekt":13366,"ĠSat":13367,"oles":13368,"wertet":13369,"ĠBesorgnis":13370,"Ġglobalisation":13371,"Ġstehenden":13372,"Ġerlaut":13373,"ĠDesk":13374,"ĠStadten":13375,"Ġhorizont":13376,"yside":13377,"etheless":13378,"acks":13379,"Ġflood":13380,"town":13381,"Ġlots":13382,"Ġconsent":13383,"ĠVerlauf":13384,"Ġdiagn":13385,"Daten":13386,"Ġdign":13387,"IX":13388,"Ġadults":13389,"Noch":13390,"ĠDra":13391,"Ġverwirk":13392,"Ġtaxation":13393,"ivalent":13394,"ĠFac":13395,"Ġconstitutional":13396,"Ġmagnificent":13397,"ĠPage":13398,"ĠShop":13399,"orie":13400,"ĠBrowser":13401,"China":13402,"ĠThomas":13403,"ĠFreunden":13404,"WF":13405,"gess":13406,"Ġrental":13407,"Ġbrut":13408,"ĠRechnungshof":13409,"Ġinj":13410,"Ġjener":13411,"sbuffet":13412,"waffen":13413,"ĠER":13414,"Ġproposes":13415,"boden":13416,"Ġaussprechen":13417,"Ġreduzieren":13418,"hort":13419,"Ġdied":13420,"Ġbritische":13421,"ĠWerke":13422,"ĠLegal":13423,"imbabwe":13424,"Los":13425,"Ġmiles":13426,"Whether":13427,"Commissioner":13428,"itim":13429,"lehnung":13430,"Ġfehlt":13431,"Ġexit":13432,"llo":13433,"Ġaddresses":13434,"Ġsuppliers":13435,"Ġunfair":13436,"technolog":13437,"ographic":13438,"ĠWerkzeug":13439,"ĠBetrag":13440,"Ġdeposit":13441,"unications":13442,"sa":13443,"ila":13444,"EX":13445,"ĠTO":13446,"oliday":13447,"marquis":13448,"Ġschlagt":13449,"uite":13450,"Ġconsidering":13451,"Ġslightly":13452,"Ġdistributed":13453,"ĠDefiz":13454,"ĠSektoren":13455,"ulich":13456,"Ġhundred":13457,"ĠBedien":13458,"USS":13459,"Dire":13460,"informationen":13461,"ĠAD":13462,"Ġangewand":13463,"zonen":13464,"gested":13465,"aumt":13466,"Ġunverzuglich":13467,"Ġeastern":13468,"Ġzusammenarbeiten":13469,"Ġidentified":13470,"Ġencouraging":13471,"ĠErzeugnisse":13472,"Ġtemp":13473,"ĠEZ":13474,"Ð·":13475,"ĠCafe":13476,"94":13477,"ĠFerr":13478,"Ġbestimmter":13479,"Ġsuspend":13480,"ĠIndian":13481,"ĠVict":13482,"behandlung":13483,"ĠSozialdem":13484,"ĠMitarbeitern":13485,"Ġangegebenen":13486,"gener":13487,"ildren":13488,"ĠSpaÃŁ":13489,"Ġpreparing":13490,"ĠgroÃŁzug":13491,"regeln":13492,"Ġsurf":13493,"Ġwiederholen":13494,"pot":13495,"Ġpoten":13496,"ĠVorstellung":13497,"estra":13498,"ĠBetracht":13499,"Don":13500,"Ġformed":13501,"ĠTsch":13502,"ĠBalkans":13503,"ĠWohlstand":13504,"ĠGaza":13505,"ĠUns":13506,"Ġinclusion":13507,"wirkt":13508,"betrieb":13509,"ĠKapitel":13510,"erts":13511,"ĠPR":13512,"ĠTraining":13513,"Ġplays":13514,"Ġverbesser":13515,"ĠNorthern":13516,"Ġverkaufen":13517,"unes":13518,"ĠGericht":13519,"Ġextraordinary":13520,"ĠAuge":13521,"ohnungen":13522,"ĠUntersuchungen":13523,"Ġeingereicht":13524,"Ġplenary":13525,"ĠMichel":13526,"Ġbetreffend":13527,"Ġunw":13528,"Ġsubstance":13529,"Ġproviders":13530,"ĠMannern":13531,"ĠAlk":13532,"dienste":13533,"agung":13534,"prene":13535,"ĠKriegs":13536,"rd":13537,"insel":13538,"Ġmac":13539,"ĠDynam":13540,"ĠUSS":13541,"dorf":13542,"ĠFair":13543,"ĠVietnam":13544,"ĠOptionen":13545,"Press":13546,"ĠLuc":13547,"ĠNiger":13548,"Ġ2013":13549,"ĠUrheber":13550,"Ġadap":13551,"Ġbright":13552,"freien":13553,"Ġresolved":13554,"Ġarmy":13555,"utet":13556,"Ġvoc":13557,"Perhaps":13558,"ĠDev":13559,"Haus":13560,"Ġsuit":13561,"ĠSalzburg":13562,"idet":13563,"Kann":13564,"Ġrussischen":13565,"ĠChair":13566,"ursday":13567,"ĠBelgium":13568,"ĠOptim":13569,"ĠauÃŁern":13570,"ueller":13571,"ĠSoviet":13572,"pers":13573,"Ġappeared":13574,"uhrt":13575,"ĠVern":13576,"werken":13577,"ĠProgrammen":13578,"Ġverstarken":13579,"ĠVersand":13580,"ĠRechtsstaat":13581,"ĠMoz":13582,"ĠDipl":13583,"kehrt":13584,"ĠCharta":13585,"altungs":13586,"ĠBemerkung":13587,"Ġerhielt":13588,"Ġarab":13589,"stock":13590,"lange":13591,"ĠKontrollen":13592,"ĠKommun":13593,"ĠDetail":13594,"ĠQuark":13595,"ĠPay":13596,"Ġsensible":13597,"ĠBereitstellung":13598,"Ġ700":13599,"ĠSchlussfolgerungen":13600,"Ġensures":13601,"Ġartistic":13602,"Ġthousand":13603,"lings":13604,"ĠRio":13605,"Ġstil":13606,"Ġassure":13607,"Ġerfolgreichen":13608,"ĠKonsult":13609,"okratie":13610,"site":13611,"Ġvermitteln":13612,"Ġvorbereitet":13613,"Ġhonest":13614,"ui":13615,"ville":13616,"Ġsor":13617,"ziellen":13618,"Ġempfangen":13619,"ademy":13620,"ĠKaffee":13621,"Best":13622,"trans":13623,"Ġgebrauch":13624,"ĠKopenhagen":13625,"Ġduties":13626,"ented":13627,"Ġvieles":13628,"ÑĢÐ°":13629,"ĠHungary":13630,"Ġsemin":13631,"achter":13632,"Ġgehor":13633,"Ġeveryday":13634,"Ġroll":13635,"Ġeroff":13636,"ĠWesent":13637,"strafe":13638,"Ġerhebliche":13639,"ĠAKP":13640,"ancing":13641,"ĠMalta":13642,"schefs":13643,"Ġactively":13644,"ĠVerbraucherschutz":13645,"ĠPlug":13646,"Ġroads":13647,"Ġenhance":13648,"Ġnahm":13649,"Ġbeigetragen":13650,"iegelt":13651,"Ġfunctional":13652,"ĠSchn":13653,"Ġconcepts":13654,"istent":13655,"ĠAlpen":13656,"ple":13657,"ĠIb":13658,"Check":13659,"Ñĸ":13660,"aine":13661,"Ġeventually":13662,"ĠMcC":13663,"orse":13664,"ĠBrand":13665,"cho":13666,"2007":13667,"ĠKais":13668,"ĠSche":13669,"Ġpartial":13670,"CP":13671,"Ġing":13672,"ĠHinweis":13673,"assig":13674,"losungen":13675,"ĠRem":13676,"Ġzuruckzu":13677,"Ġtheory":13678,"tex":13679,"Ġmusical":13680,"Ġcomponent":13681,"ĠDonner":13682,"aue":13683,"pert":13684,"seite":13685,"Ġsolely":13686,"Ġumge":13687,"ĠRechtsgrundlage":13688,"ĠAssembly":13689,"Ġelsewhere":13690,"ĠValley":13691,"Ġwestern":13692,"Ġwunderschonen":13693,"Ġsubjects":13694,"Thirdly":13695,"ĠDal":13696,"ĠReduz":13697,"Ġdecisive":13698,"edy":13699,"Hand":13700,"laÃŁ":13701,"Ġauseinander":13702,"Ġtoba":13703,"ĠVice":13704,"idad":13705,"Ġproposing":13706,"Ġ64":13707,"Ġeingehalten":13708,"Ġindex":13709,"ĠUbergangs":13710,"Ġtea":13711,"OK":13712,"ĠDE":13713,"Ġdeter":13714,"ĠgroÃŁem":13715,"Ġabsence":13716,"Ġspoke":13717,"lauft":13718,"Ġ42":13719,"Ġdeleg":13720,"ommerce":13721,"Ġbeteiligen":13722,"ĠLegisl":13723,"Given":13724,"key":13725,"ĠAV":13726,"okonom":13727,"Ġupdates":13728,"Ġauthentic":13729,"position":13730,"Ġdrinks":13731,"Ġdeficit":13732,"ĠÑģ":13733,"ĠStructural":13734,"zum":13735,"unn":13736,"Ġvary":13737,"Ġboost":13738,"ĠAdr":13739,"ĠFuhrungs":13740,"gart":13741,"Ġfourth":13742,"bi":13743,"Ġdella":13744,"Ġstrategischen":13745,"ĠSchulen":13746,"Ġnevertheless":13747,"Ġpreced":13748,"ĠWhat":13749,"Ġcarrying":13750,"Ġanwesend":13751,"Ġapplying":13752,"Ġintelligent":13753,"Ġelektronischen":13754,"economic":13755,"ĠKrankheit":13756,"Ġvulnerable":13757,"paket":13758,"Ġemotion":13759,"menade":13760,"Ġsupplies":13761,"Ġlangsam":13762,"uggage":13763,"Ġverantwortungs":13764,"ĠFull":13765,"endar":13766,"Ġabziel":13767,"Ġcountryside":13768,"hein":13769,"athedral":13770,"ĠAutobahn":13771,"ĠPutin":13772,"ĠFA":13773,"Ġinterpre":13774,"Ġvari":13775,"ĠBedrohung":13776,"Ġlegitimate":13777,"ĠWetter":13778,"ĠAnmerk":13779,"Ġlokale":13780,"ĠSchluÃŁ":13781,"Ġafr":13782,"icing":13783,"ĠVon":13784,"Ġstolz":13785,"Ġenerg":13786,"ĠPhilosoph":13787,"Ġamerikanische":13788,"kontrolle":13789,"Ġuniform":13790,"ĠKonkur":13791,"auscht":13792,"Ġdecre":13793,"Ġnachdruck":13794,"Ġships":13795,"anke":13796,"ĠNachricht":13797,"Ġverboten":13798,"Ġuniversity":13799,"Ġinterpretation":13800,"Ġbeobachten":13801,"Ġeuros":13802,"Ġbislang":13803,"Ġgekenn":13804,"sie":13805,"Ġbedauer":13806,"tech":13807,"Ġgenannte":13808,"ĠStaates":13809,"ĠNewsletter":13810,"Mon":13811,"Ġgewohn":13812,"ĠGegenstand":13813,"Ġeinzigartigen":13814,"ĠBere":13815,"Ġwechsel":13816,"Ġlessons":13817,"van":13818,"Ġwrote":13819,"ĠVel":13820,"ĠKonstru":13821,"Ġverwand":13822,"Ġsuggestions":13823,"wiegend":13824,"ĠBang":13825,"Ġvorrang":13826,"Ġausgerichtet":13827,"Ġunvergess":13828,"Ġsusp":13829,"Ġexcessive":13830,"Weiter":13831,"oration":13832,"Ġdefect":13833,"Ġkomme":13834,"deckt":13835,"Ġvillages":13836,"Ġwarn":13837,"Ġhandle":13838,"Ġentscheidender":13839,"zo":13840,"ĠEmail":13841,"2004":13842,"Ġgenerated":13843,"71":13844,"kture":13845,"Ġshipping":13846,"Ġpackaging":13847,"Ges":13848,
[...]
